{
  "<pad>": 0,
  "<s>": 1,
  "</s>": 2,
  "<unk>": 3,
  "<0x00>": 4,
  "<0x01>": 5,
  "<0x02>": 6,
  "<0x03>": 7,
  "<0x04>": 8,
  "<0x05>": 9,
  "<0x06>": 10,
  "<0x07>": 11,
  "<0x08>": 12,
  "<0x09>": 13,
  "<0x0A>": 14,
  "<0x0B>": 15,
  "<0x0C>": 16,
  "<0x0D>": 17,
  "<0x0E>": 18,
  "<0x0F>": 19,
  "<0x10>": 20,
  "<0x11>": 21,
  "<0x12>": 22,
  "<0x13>": 23,
  "<0x14>": 24,
  "<0x15>": 25,
  "<0x16>": 26,
  "<0x17>": 27,
  "<0x18>": 28,
  "<0x19>": 29,
  "<0x1A>": 30,
  "<0x1B>": 31,
  "<0x1C>": 32,
  "<0x1D>": 33,
  "<0x1E>": 34,
  "<0x1F>": 35,
  "<0x20>": 36,
  "<0x21>": 37,
  "<0x22>": 38,
  "<0x23>": 39,
  "<0x24>": 40,
  "<0x25>": 41,
  "<0x26>": 42,
  "<0x27>": 43,
  "<0x28>": 44,
  "<0x29>": 45,
  "<0x2A>": 46,
  "<0x2B>": 47,
  "<0x2C>": 48,
  "<0x2D>": 49,
  "<0x2E>": 50,
  "<0x2F>": 51,
  "<0x30>": 52,
  "<0x31>": 53,
  "<0x32>": 54,
  "<0x33>": 55,
  "<0x34>": 56,
  "<0x35>": 57,
  "<0x36>": 58,
  "<0x37>": 59,
  "<0x38>": 60,
  "<0x39>": 61,
  "<0x3A>": 62,
  "<0x3B>": 63,
  "<0x3C>": 64,
  "<0x3D>": 65,
  "<0x3E>": 66,
  "<0x3F>": 67,
  "<0x40>": 68,
  "<0x41>": 69,
  "<0x42>": 70,
  "<0x43>": 71,
  "<0x44>": 72,
  "<0x45>": 73,
  "<0x46>": 74,
  "<0x47>": 75,
  "<0x48>": 76,
  "<0x49>": 77,
  "<0x4A>": 78,
  "<0x4B>": 79,
  "<0x4C>": 80,
  "<0x4D>": 81,
  "<0x4E>": 82,
  "<0x4F>": 83,
  "<0x50>": 84,
  "<0x51>": 85,
  "<0x52>": 86,
  "<0x53>": 87,
  "<0x54>": 88,
  "<0x55>": 89,
  "<0x56>": 90,
  "<0x57>": 91,
  "<0x58>": 92,
  "<0x59>": 93,
  "<0x5A>": 94,
  "<0x5B>": 95,
  "<0x5C>": 96,
  "<0x5D>": 97,
  "<0x5E>": 98,
  "<0x5F>": 99,
  "<0x60>": 100,
  "<0x61>": 101,
  "<0x62>": 102,
  "<0x63>": 103,
  "<0x64>": 104,
  "<0x65>": 105,
  "<0x66>": 106,
  "<0x67>": 107,
  "<0x68>": 108,
  "<0x69>": 109,
  "<0x6A>": 110,
  "<0x6B>": 111,
  "<0x6C>": 112,
  "<0x6D>": 113,
  "<0x6E>": 114,
  "<0x6F>": 115,
  "<0x70>": 116,
  "<0x71>": 117,
  "<0x72>": 118,
  "<0x73>": 119,
  "<0x74>": 120,
  "<0x75>": 121,
  "<0x76>": 122,
  "<0x77>": 123,
  "<0x78>": 124,
  "<0x79>": 125,
  "<0x7A>": 126,
  "<0x7B>": 127,
  "<0x7C>": 128,
  "<0x7D>": 129,
  "<0x7E>": 130,
  "<0x7F>": 131,
  "<0x80>": 132,
  "<0x81>": 133,
  "<0x82>": 134,
  "<0x83>": 135,
  "<0x84>": 136,
  "<0x85>": 137,
  "<0x86>": 138,
  "<0x87>": 139,
  "<0x88>": 140,
  "<0x89>": 141,
  "<0x8A>": 142,
  "<0x8B>": 143,
  "<0x8C>": 144,
  "<0x8D>": 145,
  "<0x8E>": 146,
  "<0x8F>": 147,
  "<0x90>": 148,
  "<0x91>": 149,
  "<0x92>": 150,
  "<0x93>": 151,
  "<0x94>": 152,
  "<0x95>": 153,
  "<0x96>": 154,
  "<0x97>": 155,
  "<0x98>": 156,
  "<0x99>": 157,
  "<0x9A>": 158,
  "<0x9B>": 159,
  "<0x9C>": 160,
  "<0x9D>": 161,
  "<0x9E>": 162,
  "<0x9F>": 163,
  "<0xA0>": 164,
  "<0xA1>": 165,
  "<0xA2>": 166,
  "<0xA3>": 167,
  "<0xA4>": 168,
  "<0xA5>": 169,
  "<0xA6>": 170,
  "<0xA7>": 171,
  "<0xA8>": 172,
  "<0xA9>": 173,
  "<0xAA>": 174,
  "<0xAB>": 175,
  "<0xAC>": 176,
  "<0xAD>": 177,
  "<0xAE>": 178,
  "<0xAF>": 179,
  "<0xB0>": 180,
  "<0xB1>": 181,
  "<0xB2>": 182,
  "<0xB3>": 183,
  "<0xB4>": 184,
  "<0xB5>": 185,
  "<0xB6>": 186,
  "<0xB7>": 187,
  "<0xB8>": 188,
  "<0xB9>": 189,
  "<0xBA>": 190,
  "<0xBB>": 191,
  "<0xBC>": 192,
  "<0xBD>": 193,
  "<0xBE>": 194,
  "<0xBF>": 195,
  "<0xC0>": 196,
  "<0xC1>": 197,
  "<0xC2>": 198,
  "<0xC3>": 199,
  "<0xC4>": 200,
  "<0xC5>": 201,
  "<0xC6>": 202,
  "<0xC7>": 203,
  "<0xC8>": 204,
  "<0xC9>": 205,
  "<0xCA>": 206,
  "<0xCB>": 207,
  "<0xCC>": 208,
  "<0xCD>": 209,
  "<0xCE>": 210,
  "<0xCF>": 211,
  "<0xD0>": 212,
  "<0xD1>": 213,
  "<0xD2>": 214,
  "<0xD3>": 215,
  "<0xD4>": 216,
  "<0xD5>": 217,
  "<0xD6>": 218,
  "<0xD7>": 219,
  "<0xD8>": 220,
  "<0xD9>": 221,
  "<0xDA>": 222,
  "<0xDB>": 223,
  "<0xDC>": 224,
  "<0xDD>": 225,
  "<0xDE>": 226,
  "<0xDF>": 227,
  "<0xE0>": 228,
  "<0xE1>": 229,
  "<0xE2>": 230,
  "<0xE3>": 231,
  "<0xE4>": 232,
  "<0xE5>": 233,
  "<0xE6>": 234,
  "<0xE7>": 235,
  "<0xE8>": 236,
  "<0xE9>": 237,
  "<0xEA>": 238,
  "<0xEB>": 239,
  "<0xEC>": 240,
  "<0xED>": 241,
  "<0xEE>": 242,
  "<0xEF>": 243,
  "<0xF0>": 244,
  "<0xF1>": 245,
  "<0xF2>": 246,
  "<0xF3>": 247,
  "<0xF4>": 248,
  "<0xF5>": 249,
  "<0xF6>": 250,
  "<0xF7>": 251,
  "<0xF8>": 252,
  "<0xF9>": 253,
  "<0xFA>": 254,
  "<0xFB>": 255,
  "<0xFC>": 256,
  "<0xFD>": 257,
  "<0xFE>": 258,
  "<0xFF>": 259,
  "ng": 260,
  "\u2581t": 261,
  "\u2581c": 262,
  "\u2581\u0111": 263,
  "nh": 264,
  "\u2581l": 265,
  "\u2581th": 266,
  "\u2581m": 267,
  "\u2581k": 268,
  "\u2581h": 269,
  "\u2581v": 270,
  "\u2581ch": 271,
  "\u2581n": 272,
  "\u2581nh": 273,
  "\u2581T": 274,
  "\u2581b": 275,
  "\u2581kh": 276,
  "\u2581tr": 277,
  "\u2581s": 278,
  "\u2581ng": 279,
  "\u00ean": 280,
  "\u00f4ng": 281,
  "\u2581g": 282,
  "ph": 283,
  "\u2581ph": 284,
  "..": 285,
  "\u2581r": 286,
  "\u2581d": 287,
  "uy": 288,
  "i\u1ebf": 289,
  "\u2581kh\u00f4ng": 290,
  "\u01b0\u1edd": 291,
  "\u2581l\u00e0": 292,
  "\u1ea1i": 293,
  "\u2581gi": 294,
  "\u2581H": 295,
  "\u2581Th": 296,
  "\u1ed9t": 297,
  "\u2581c\u00f3": 298,
  "\u00e2n": 299,
  "\u2581L": 300,
  "\u01b0\u01a1": 301,
  "i\u1ec7": 302,
  "\u2581n\u00e0": 303,
  "\u2581q": 304,
  "\u2581N": 305,
  "i\u00ean": 306,
  "ong": 307,
  "\u1ea7n": 308,
  "\u2581m\u1ed9t": 309,
  "\u2581qu": 310,
  "\u1edbi": 311,
  "\u2581c\u1ee7": 312,
  "\u2581c\u1ee7a": 313,
  "\u1ea5t": 314,
  "inh": 315,
  "\u2581C": 316,
  "ch": 317,
  "\u2581x": 318,
  "\u01b0\u1eddi": 319,
  "\u01b0\u1ee3": 320,
  "\u2581nh\u01b0": 321,
  "\u2581\u0110": 322,
  "\u01b0\u01a1ng": 323,
  "\u2581n\u00e0y": 324,
  "\u1eafn": 325,
  "\u2581v\u00e0": 326,
  "ay": 327,
  "\u2581Tr": 328,
  "\u2581l\u1ea1i": 329,
  "\u0169ng": 330,
  "\u2581ng\u01b0\u1eddi": 331,
  "\u2581trong": 332,
  "ao": 333,
  "\u2581c\u0169ng": 334,
  "\u2581\u0111\u00e3": 335,
  "\u1ef1c": 336,
  "\u2581\"": 337,
  "\u2581th\u1ec3": 338,
  "\u2581ra": 339,
  "\u01b0\u1edb": 340,
  "an": 341,
  "\u1ea5y": 342,
  "\u2581h\u1eafn": 343,
  "ang": 344,
  "\u01b0\u1ee3c": 345,
  "\u00ecnh": 346,
  "\u2581V": 347,
  "ai": 348,
  "\u2581M": 349,
  "\u1ea3i": 350,
  "\u2581K": 351,
  "\u1ec1u": 352,
  "\u01b0\u1eddng": 353,
  "\u00e0n": 354,
  "....": 355,
  "u\u1ed1": 356,
  "\u00e1c": 357,
  "\u00f9ng": 358,
  "\u2581n\u00f3": 359,
  "anh": 360,
  "\u00e0nh": 361,
  "\u1ebfn": 362,
  "\u2581c\u1ea3": 363,
  "\u01b0\u1edbc": 364,
  "\u1eadn": 365,
  "\u1ec1n": 366,
  "\u2581\u0111i": 367,
  "\u2581m\u00e0": 368,
  "\u2581\u0111\u01b0\u1ee3c": 369,
  "i\u1ec7n": 370,
  "i\u1ebfn": 371,
  "\u2581\u0111\u1ebfn": 372,
  "\u2581ph\u00e1": 373,
  "\u1eddi": 374,
  "\u2581Ng": 375,
  "Ph": 376,
  "\u2581S": 377,
  "\u00f2n": 378,
  "uy\u1ec7": 379,
  "\u1ebft": 380,
  "\u2581B": 381,
  "\u2581ta": 382,
  "\u2581n\u00f3i": 383,
  "\u2581D": 384,
  "\u2581Ph": 385,
  "\u1eadt": 386,
  "\u2581Ch": 387,
  "\u1ee9c": 388,
  "\u2581t\u1eeb": 389,
  "au": 390,
  "\u1ea7u": 391,
  "\u2581ngh": 392,
  "\u2581\u0111\u00f3": 393,
  "\u2581ch\u1ec9": 394,
  "\u01a1n": 395,
  "\u1ed1i": 396,
  "\u1eaft": 397,
  "i\u1ebft": 398,
  "\u1eafc": 399,
  "\u00e1i": 400,
  "\u2581tu": 401,
  "\u1ea1o": 402,
  "\u00e2y": 403,
  "\u2581c\u00f2n": 404,
  "i\u1ec3": 405,
  "\u1ed3i": 406,
  "\u1eefng": 407,
  "\u00fac": 408,
  "\u00ednh": 409,
  "\u00e0ng": 410,
  "\u2581Nh": 411,
  "\u2581v\u1edbi": 412,
  "\u2581ch\u00fa": 413,
  "\u2581ph\u1ea3i": 414,
  "\u2581\u201c": 415,
  "\u2581v\u00e0o": 416,
  "uy\u00ean": 417,
  "uy\u1ec7n": 418,
  "\u00e1nh": 419,
  "\u00f4n": 420,
  "\u00e0i": 421,
  "\u2581\u0111\u1ed9": 422,
  "ung": 423,
  "\u00e2m": 424,
  "\u00ecn": 425,
  "\u00eau": 426,
  "\u1eb7t": 427,
  "\u2581nh\u01b0ng": 428,
  "\u1ee5c": 429,
  "\u1eabn": 430,
  "...": 431,
  "\u2581cho": 432,
  "\u00e2u": 433,
  "\u2581c\u00f9ng": 434,
  "\u2581nh\u1eefng": 435,
  "\u01b0\u01a1i": 436,
  "\u2581\u0111\u1ea7u": 437,
  "\u2581Kh": 438,
  "\u2581nh\u00ecn": 439,
  "\u00f4i": 440,
  "\u0103m": 441,
  "\u2581th\u00e0nh": 442,
  "\u2581ti\u1ebf": 443,
  "uy\u1ec1n": 444,
  "\u1ea3n": 445,
  "\u1eady": 446,
  "\u00e1ch": 447,
  "\u2581l\u00ean": 448,
  "\u2581b\u1ecb": 449,
  "\u3002\u201d": 450,
  "\u2581ho": 451,
  "\u2581tr\u01b0\u1edbc": 452,
  "\u2581\u1edf": 453,
  "\u1eefa": 454,
  "\u2581khi": 455,
  "\u2581s\u1ef1": 456,
  "\u2581th\u1ebf": 457,
  "\u2581th\u1ea5y": 458,
  "\u2581tr\u00ean": 459,
  "\u00f2ng": 460,
  "\u1ea1ch": 461,
  "\u2581th\u00ec": 462,
  "\u01a1i": 463,
  "\u2581tay": 464,
  "\u2581sau": 465,
  "\u2581v\u1ec1": 466,
  "\u0103ng": 467,
  "\u2581Thi\u00ean": 468,
  "\u2581\u0111\u1ec3": 469,
  "\u00edch": 470,
  "\u2581\u0111\u1ec1u": 471,
  "\u2581sao": 472,
  "\u00e1t": 473,
  "\u1ed9c": 474,
  "\u2581m\u1eaft": 475,
  "......": 476,
  "\u2581m\u1eb7t": 477,
  "\u00e1ng": 478,
  "\u2581th\u00e2n": 479,
  "\u2581hai": 480,
  "\u1eadp": 481,
  ".\"": 482,
  "\u2581r\u1ed3i": 483,
  "\u1ed3ng": 484,
  "i\u1ec3u": 485,
  "\u2581h\u1ecd": 486,
  "\u1ed1ng": 487,
  "\u2581v\u1eady": 488,
  "\u1ea1n": 489,
  "\u2581Q": 490,
  "\u2581l\u00e0m": 491,
  "\u01b0a": 492,
  "\u2581thu": 493,
  "\u1ea3o": 494,
  "\u6ca1\u6709": 495,
  "\u2581ph\u00e1p": 496,
  "\u2581\u0111\u1ea1i": 497,
  "\u2581bi\u1ebft": 498,
  "\u2581l\u1ef1c": 499,
  ":\u201c": 500,
  "\u2581nh\u00e2n": 501,
  "\u2581ti": 502,
  "\u1eb7c": 503,
  "\u2581ch\u00ednh": 504,
  "i\u1ec1u": 505,
  "\u2581n\u00e0o": 506,
  "\u2581g\u00ec": 507,
  "\u2581s\u1ebd": 508,
  "\u2581\u0111\u1ed1i": 509,
  "i\u1ebfm": 510,
  "\u1ebfu": 511,
  "\u2581m\u00ecnh": 512,
  "\u2581\u0111\u1ecb": 513,
  "\u2581ng\u01b0\u01a1i": 514,
  "eo": 515,
  "\u2581hi\u1ec7n": 516,
  "\u01b0\u1ee3ng": 517,
  "\u1eb3ng": 518,
  "\u2581nh\u1ea5t": 519,
  "\u2581\u0111ang": 520,
  "\u2581v\u1eabn": 521,
  "\u81ea\u5df1": 522,
  "\u2581ch\u00fat": 523,
  "\u1ea1nh": 524,
  "\u00e1n": 525,
  "\u2581ki": 526,
  "\u2581qua": 527,
  "\u00eam": 528,
  "\u01b0\u1edf": 529,
  "uy\u1ebft": 530,
  "\u2581co": 531,
  "\u01b0\u1edfng": 532,
  "\u1ed9i": 533,
  "\u2581m\u1edbi": 534,
  "\u2581kh\u00ed": 535,
  "\u2581v\u00f4": 536,
  "\u2581ph\u00ed": 537,
  "\u2581to": 538,
  "\u2581h\u01a1n": 539,
  "u\u1ed1n": 540,
  "\u1ed5i": 541,
  "\u0103n": 542,
  "\u1ea5n": 543,
  "\u1eeba": 544,
  "\u1ea7m": 545,
  "\u2581X": 546,
  "?\u201d": 547,
  "\u1ea1c": 548,
  "\u2581n\u0103m": 549,
  "\u2581th\u1ef1c": 550,
  "\u2581n\u1eefa": 551,
  "\u00e1m": 552,
  "\u1ee9ng": 553,
  "\u2581t\u1ef1": 554,
  "\u2581v\u1ecb": 555,
  "\u2581Tr\u1ea7n": 556,
  "\u1eb1ng": 557,
  "\u2581nhi\u00ean": 558,
  "\u2581ph\u00eda": 559,
  "am": 560,
  "\u2581l\u00fac": 561,
  "\u2581l\u1edb": 562,
  "\u2581t\u1edbi": 563,
  "\u2581G": 564,
  "\u2581\u0111\u1ea1o": 565,
  "\u2581Qu": 566,
  "\u2581th\u1ea7n": 567,
  "!\u201d": 568,
  "\u2581b\u00ean": 569,
  "\u1ed1n": 570,
  "\u00e1o": 571,
  "\u1ecdng": 572,
  "\u1ecfi": 573,
  "i\u1ec7t": 574,
  "\u2581r\u1ea5t": 575,
  "\u2581t\u1eed": 576,
  "\u1eebng": 577,
  "\u1ea5p": 578,
  "\u2581\u0111\u1ed9ng": 579,
  "\u4ec0\u4e48": 580,
  "\u00e3o": 581,
  "\u2581mu\u1ed1n": 582,
  "\u2581c\u00f4ng": 583,
  "\u01b0ng": 584,
  "u\u1ed1ng": 585,
  "\u4e00\u4e2a": 586,
  "\u2581Gi": 587,
  "\u2581lo": 588,
  "\u2581ngo": 589,
  "\u2581l\u1edbn": 590,
  "\u2581c\u00e1c": 591,
  "\u2581Ho": 592,
  "\u2581L\u00fd": 593,
  "\u1ecdn": 594,
  "\u2581s\u01b0": 595,
  "i\u1ec7c": 596,
  "\u2581c\u1ea3m": 597,
  "\u2581kia": 598,
  "\u2581n\u00ean": 599,
  "\u1ed3n": 600,
  "\u2581Linh": 601,
  "\u2581theo": 602,
  "\u2581kh\u00e1c": 603,
  "i\u00eau": 604,
  "\u1ed1t": 605,
  "\u2581\u0111\u00e2y": 606,
  "i\u1ec7u": 607,
  "\u1ed1c": 608,
  "\u1ea1t": 609,
  "\u2581\u00fd": 610,
  "\u00e0y": 611,
  "\u1eeda": 612,
  "\u2581y": 613,
  "i\u1ec1n": 614,
  "\u00e1p": 615,
  "\u2581t\u1eebng": 616,
  "\u2581t\u1ea1i": 617,
  "\u1ea5u": 618,
  "\u2581gia": 619,
  "\u2581con": 620,
  "\u2581nhi\u1ec1u": 621,
  "\u4e86\u4e00": 622,
  "\u2581ti\u1ebfng": 623,
  "\u2581b\u1ea3n": 624,
  "\u2581c\u00e1i": 625,
  "\u2581l\u00f2ng": 626,
  "\u2581luy\u1ec7n": 627,
  "\u2581vi\u1ec7c": 628,
  "\u2581v\u00ec": 629,
  "\u2581gi\u1edbi": 630,
  "\u2581chuy\u1ec7n": 631,
  "?\"": 632,
  "\u2581to\u00e0n": 633,
  "\u2581linh": 634,
  "\u5df2\u7ecf": 635,
  "\u2581th\u1eddi": 636,
  "\u2581tr\u1eadn": 637,
  "\u2581l\u1ea7n": 638,
  "\u2581c\u1ea3nh": 639,
  "\u2581ch\u00e2n": 640,
  "\u2581Th\u1ea7n": 641,
  "en": 642,
  "\u2581k\u1ef3": 643,
  "\u1ecdi": 644,
  "\u2581v\u1eeba": 645,
  "\u3002\u201c": 646,
  "\u2581t\u1ee9c": 647,
  "\u77e5\u9053": 648,
  "\u2581t\u00e2m": 649,
  "\u2581n\u00e0ng": 650,
  "\u2581cao": 651,
  "\u2581ti\u1ebfp": 652,
  "\u2581\u0111\u01b0\u1eddng": 653,
  "\u2581ki\u1ebfm": 654,
  "\u2581l\u00e3o": 655,
  "\u2581chi\u1ebfn": 656,
  "\u00e0o": 657,
  "\u2581d\u00f9": 658,
  "\u2581xu\u1ed1ng": 659,
  "\u2581tr\u1edf": 660,
  "\u4ed6\u4eec": 661,
  "\u2581Huy\u1ec1n": 662,
  "\u1ecdc": 663,
  "\u2581ch\u1eb3ng": 664,
  "\u00e0m": 665,
  "\u2581c\u00e1ch": 666,
  "\u2581ch\u01b0a": 667,
  "\u2581kh\u00f3": 668,
  "\u2581quan": 669,
  "\u2581\u0111\u1ecbnh": 670,
  "\u2581l\u1ea5y": 671,
  "\u2581th\u1ee7": 672,
  "\u1ea3nh": 673,
  "\u2581c\u1ea7n": 674,
  "\u4e0d\u662f": 675,
  "\u2581ngh\u0129": 676,
  "\u2581c\u01a1": 677,
  "\u1ea9n": 678,
  "\u2581s\u0129": 679,
  "\u2581gian": 680,
  "\u00f3ng": 681,
  "\u01b0u": 682,
  "\u2581xu": 683,
  "\u2581La": 684,
  "\u1eadm": 685,
  "\u1eafng": 686,
  "\u2581sinh": 687,
  "\u2581ngo\u00e0i": 688,
  "\u2581lu": 689,
  "\u2581ph\u01b0\u01a1ng": 690,
  "\u2581ch\u1ee7": 691,
  "\u2581ba": 692,
  "\u2581cu": 693,
  "\u2581d\u01b0": 694,
  "\u2581\u0111o": 695,
  "\u2581ng\u00e0y": 696,
  "\u2581H\u1ea1": 697,
  "\u2581n\u01a1i": 698,
  "!\"": 699,
  "\u1ee3i": 700,
  "\u2581nh\u1eadn": 701,
  "\u2581ch\u00fang": 702,
  "\u2581s\u1ed1": 703,
  "\u2581khi\u1ebfn": 704,
  "\u2581th\u01b0\u1eddng": 705,
  "\u2581d\u00f9ng": 706,
  "\u2581ti\u00ean": 707,
  "\u2581c\u01b0\u1eddi": 708,
  "\u5c31\u662f": 709,
  "em": 710,
  "\u1ea3y": 711,
  "\u00fang": 712,
  "\u2581m\u1ea5y": 713,
  "\u2581ph\u00e1t": 714,
  "\u2581c\u00e0ng": 715,
  "\u2581m\u00f4n": 716,
  "\u5230\u4e86": 717,
  "\u2581v\u1eadt": 718,
  "\u2581r\u00f5": 719,
  "\u2581do": 720,
  "\u2581th\u1ee9": 721,
  "im": 722,
  "\u2581Nguy\u00ean": 723,
  "\u2581qu\u00e1": 724,
  "\u2581l\u1eddi": 725,
  "\u2581qu\u1ea3": 726,
  "i\u1ebfu": 727,
  "\u2581b\u1ed9": 728,
  "\u2581b\u1ea5t": 729,
  "\u2581S\u01a1n": 730,
  "\u01b0\u1edbng": 731,
  "\u2581gi\u1ea3": 732,
  "\u2581n\u1ebfu": 733,
  "\u2581Thanh": 734,
  "\u2581h\u00e0nh": 735,
  "\u2581b\u01b0\u1edbc": 736,
  "\u8fd9\u4e2a": 737,
  "\u2581Xuy\u00ean": 738,
  "\u2581\u0111\u1ec7": 739,
  "\u2581l\u1ebd": 740,
  "\u2581\u0110\u1ea1i": 741,
  "\u00f3a": 742,
  "\u1ea7y": 743,
  "\u2581ch\u00ed": 744,
  "\u2581thi\u00ean": 745,
  "\u2581li\u1ec1n": 746,
  "\u2581m\u1ea1nh": 747,
  "\u1eafm": 748,
  "\u2581c\u1ee9": 749,
  "uy\u1ec7t": 750,
  "i\u1ec5": 751,
  "\u00ecm": 752,
  "\u2581h\u00ecnh": 753,
  "\u2581H\u1eafn": 754,
  "\u2581b\u1ea3o": 755,
  "\u2581th\u1eadt": 756,
  "\u2581k\u1ebb": 757,
  "\u73b0\u5728": 758,
  "i\u1ec7p": 759,
  "\u2581V\u01b0\u01a1ng": 760,
  "\u2581T\u1eed": 761,
  "\u2581xu\u1ea5t": 762,
  "\u2581qu\u00e2n": 763,
  "\u53ef\u4ee5": 764,
  "u\u1ed1i": 765,
  "\u1ea1ng": 766,
  "\u0129nh": 767,
  "\u4ed6\u7684": 768,
  "\u2581Ti\u00ean": 769,
  "\u2581l\u1eadp": 770,
  "\u4fee\u58eb": 771,
  "\u2581nghe": 772,
  "\u2581kho": 773,
  "\u2581kinh": 774,
  "\u2581v\u1ebb": 775,
  "\u2581r\u1eb1ng": 776,
  "\u2581d\u01b0\u1edbi": 777,
  "\u2581\u0111i\u1ec1u": 778,
  "\u1eafp": 779,
  "\u1ec9nh": 780,
  "\u2581nay": 781,
  "\u2581\u0110\u1ea1o": 782,
  "\u1ea3ng": 783,
  "\u2581ch\u1ebft": 784,
  "\u2581th\u00eam": 785,
  "\u00fai": 786,
  "\u1ec3n": 787,
  "\u8fd8\u662f": 788,
  "\u2581lo\u1ea1i": 789,
  "\u2581t\u00ean": 790,
  "\u1ea9m": 791,
  "\u2581ho\u00e0n": 792,
  "\u2581\u0111\u00e1nh": 793,
  "\u6709\u4e9b": 794,
  "\u2581Trong": 795,
  "\u2581bao": 796,
  "\u2581Ph\u00e0m": 797,
  "......\u201d": 798,
  "\u00e1u": 799,
  "\u2581\u0111\u1ed3ng": 800,
  "\u2581ngay": 801,
  "\u2581hay": 802,
  "\u2581t\u00ecnh": 803,
  "\u00e3i": 804,
  "i\u1ec3n": 805,
  "\u1ed7i": 806,
  "\u7f57\u5c18": 807,
  "\u2581Tr\u01b0\u01a1ng": 808,
  "\u2581tin": 809,
  "\u2581nh\u1ecf": 810,
  "\u56e0\u4e3a": 811,
  "\u2581b\u1eaft": 812,
  "\u2581truy\u1ec1n": 813,
  "\u4e0d\u8fc7": 814,
  "\u2581b\u00ecnh": 815,
  "\u2581A": 816,
  "\u2581s\u00e1t": 817,
  "\u2581bi\u1ebfn": 818,
  "\u51fa\u6765": 819,
  "\u2581d\u1ef1": 820,
  "\u2581\u00e1nh": 821,
  "\u1ecfa": 822,
  "\u2581b\u1ecdn": 823,
  "\u65f6\u95f4": 824,
  "i\u1ec7m": 825,
  "\u2581tho": 826,
  "\u00edt": 827,
  "\u2581kh\u1ecfi": 828,
  "\u2581th\u01b0\u01a1ng": 829,
  "\u1ecbch": 830,
  "\u00fat": 831,
  "\u2581t\u00ednh": 832,
  "\u2581th\u00f4ng": 833,
  "\u2581ti\u1ebfn": 834,
  "\u2581tr\u1ecdng": 835,
  "\u1ee5ng": 836,
  "\u2581hi\u1ec3u": 837,
  "\u4e5f\u4e0d": 838,
  "\u00e9t": 839,
  "\u2581t\u00ecm": 840,
  "\u2581tr\u01b0\u1edfng": 841,
  "\u2581\u0111\u1ed9t": 842,
  "\u2581ai": 843,
  "\u2581\u0111\u1ee9ng": 844,
  "\u53ea\u662f": 845,
  "\u8fd9\u4e9b": 846,
  "\u2581li\u00ean": 847,
  "\u2581h\u1ecfi": 848,
  "\u2581Phong": 849,
  "\u1ea1m": 850,
  "\u2581tinh": 851,
  "\u1eb7ng": 852,
  "\u2581s\u1eafc": 853,
  "\u2581nh\u00e0": 854,
  "\u2581n\u0103ng": 855,
  "\u1ed5ng": 856,
  "\u2581s\u00e1ng": 857,
  "\u2581Y": 858,
  "\u2581nghi": 859,
  "\u2581\u0110an": 860,
  "uy\u1ec3n": 861,
  "\u2581tr\u1eddi": 862,
  "\u2581xa": 863,
  "\u8d77\u6765": 864,
  "\u2581Kim": 865,
  "\u2581nguy\u00ean": 866,
  "\u2581th\u1ee9c": 867,
  "\u1ee3p": 868,
  "\u1eadu": 869,
  "\u2581cu\u1ed1i": 870,
  "\u2581\u0111\u1ea5t": 871,
  "\u2581ph\u1ea7n": 872,
  "\u1ed9ng": 873,
  "\u2581m\u1ecdi": 874,
  "\u2581gi\u1edd": 875,
  "\u2581D\u01b0\u01a1ng": 876,
  "\u2581thanh": 877,
  "\u2581V\u00e2n": 878,
  "\u2581Ti\u1ec3u": 879,
  "\u6240\u4ee5": 880,
  "\u2581T\u00f4ng": 881,
  "\u2581h\u00f3a": 882,
  "\u770b\u7740": 883,
  "\u2581xem": 884,
  "\u2581v\u1ed1n": 885,
  "\u53ef\u80fd": 886,
  "\u2581vi": 887,
  "\u2581c\u1ea5p": 888,
  "\u2581v\u00e0i": 889,
  "\u2581h\u1ea1": 890,
  "\u2581Minh": 891,
  "\u1ec7nh": 892,
  "\u2581Nh\u01b0ng": 893,
  "\u2581nhanh": 894,
  "\u65f6\u5019": 895,
  "\u2581ch\u1eafc": 896,
  "\u674e\u51e1": 897,
  "\u2581Long": 898,
  "\u1ea5m": 899,
  "\u4e5f\u662f": 900,
  "\u2581Kh\u00f4ng": 901,
  "\u600e\u4e48": 902,
  "\u8bf4\u9053": 903,
  "i\u1ebfc": 904,
  "\u5f1f\u5b50": 905,
  "\u2581phong": 906,
  "\u2581h\u1ecdc": 907,
  "\u2581h\u01a1i": 908,
  "\u2581l\u00e2u": 909,
  "\u2581c\u1ef1c": 910,
  "\u2581n\u01b0\u1edbc": 911,
  "\u2581t\u1ed1t": 912,
  "\u8fd9\u4e00": 913,
  "\u2581B\u1ea1ch": 914,
  "\u2581t\u1ed9c": 915,
  "\u2581\u0111\u1ea7y": 916,
  "\u2581\u0111an": 917,
  "...\"": 918,
  "\u1eb1m": 919,
  "\u2581m\u1ea5t": 920,
  "\u2581trung": 921,
  "\u2581mang": 922,
  "\u2581ch\u1ebf": 923,
  "\u1ec3m": 924,
  "\u2581\u00edt": 925,
  "\u90fd\u662f": 926,
  "\u6211\u4eec": 927,
  "\u7075\u5ddd": 928,
  "\u2581gi\u1eefa": 929,
  ".\u201d": 930,
  "\u2581\u0111\u1ecba": 931,
  "\u8d3a\u7075\u5ddd": 932,
  "\u2581V\u0169": 933,
  "\u4e0a\u7684": 934,
  "\u2581g\u1ea7n": 935,
  "\u2581s\u1ee9c": 936,
  "\u2581N\u1ebfu": 937,
  "\u2581huy": 938,
  "\u2581S\u01b0": 939,
  "\u2581Ch\u00e2n": 940,
  "\u2581Ma": 941,
  "\u2581h\u1ee3p": 942,
  "\u2581\u0111i\u1ec3m": 943,
  "i\u1ebfp": 944,
  "\u2581k\u1ebft": 945,
  "\u2581Tr\u01b0\u1eddng": 946,
  "\u2581th\u00f4i": 947,
  "\u2581t\u1ea5t": 948,
  "\u1ea1y": 949,
  "\u2581l\u1ed9": 950,
  "\u2581y\u00eau": 951,
  "\u4e4b\u540e": 952,
  "\u2581s\u1ee3": 953,
  "\u2581Ninh": 954,
  "\u5bf9\u65b9": 955,
  "\u2581Qu\u00e2n": 956,
  "\u2581vi\u00ean": 957,
  "\u2581H\u1ea3i": 958,
  "\u1edfi": 959,
  "\u1ee9a": 960,
  "\u2581chi": 961,
  "\u2581nhau": 962,
  "\u2581M\u1eb7c": 963,
  "\u7684\u4eba": 964,
  "\u1eb7p": 965,
  "\u2581b\u00e0n": 966,
  "\u2581Sinh": 967,
  "\u2581\u0111\u00e2u": 968,
  "\u2581h\u1ec1": 969,
  "\u2581t\u00f4ng": 970,
  "\u5982\u6b64": 971,
  "\u8fd9\u4e48": 972,
  "\u2581gi\u1ebft": 973,
  "\u2581Di\u1ec7p": 974,
  "\u2581m\u01b0\u1eddi": 975,
  "\u2581n\u00fai": 976,
  "\u5982\u679c": 977,
  "\u867d\u7136": 978,
  ",\u201c": 979,
  "\u2581chu": 980,
  "\u2581c\u1eeda": 981,
  "\u2581Sau": 982,
  "\u2581n\u1ed5i": 983,
  "u\u00e2n": 984,
  "\u2581b\u1eb1ng": 985,
  "\u2581suy": 986,
  "\u00e9m": 987,
  "\u2581tr\u0103m": 988,
  "\u2581\u00f4ng": 989,
  "i\u1ec5n": 990,
  "\u8fd9\u79cd": 991,
  "\u2581chuy\u1ec3n": 992,
  "\u2581l\u00fd": 993,
  "\u2581C\u01a1": 994,
  "\u2581l\u01b0\u1ee3ng": 995,
  "\u2581Th\u1ebf": 996,
  "\u2581cu\u1ed9c": 997,
  "\u8fd8\u6709": 998,
  "\u2581tuy": 999,
  "\u2581Ngh": 1000,
  "\u2581Chu": 1001,
  "\u2581ph\u1ee5c": 1002,
  "\u2581ph\u00f2ng": 1003,
  "\u2581\u0111\u1ee7": 1004,
  "Th": 1005,
  "\u01b0\u1ee1": 1006,
  "\u2581th\u00fa": 1007,
  "\u2581gi\u1ed1ng": 1008,
  "\u2581ng\u1edd": 1009,
  "\u2581Th\u1ea1ch": 1010,
  "\u00f4m": 1011,
  "\u2581d\u00e0i": 1012,
  "\u2581Ho\u00e0ng": 1013,
  "\u2581\u0111\u00e1m": 1014,
  "\u4eba\u7684": 1015,
  "\u01b0\u1ee3t": 1016,
  "\u2581quang": 1017,
  "\u2581h\u1ed9i": 1018,
  "\u2581\u0111en": 1019,
  "\u2581t\u01b0": 1020,
  "\u2581U": 1021,
  "\u00e1y": 1022,
  "\u2581M\u1ed9t": 1023,
  "\u90a3\u4e9b": 1024,
  "\u4e2d\u7684": 1025,
  "\u2581gi\u1ea3i": 1026,
  "\u2581Th\u01b0\u01a1ng": 1027,
  "\u4fee\u70bc": 1028,
  "\u2581Th\u00e1nh": 1029,
  "\u2581bi\u1ec7t": 1030,
  "Ch": 1031,
  "\u5927\u7684": 1032,
  "\u2581bay": 1033,
  "\u2581th\u1eadm": 1034,
  "\u2581g\u1eb7p": 1035,
  "\u2581h\u1ed3i": 1036,
  "\u2581s\u1ed1ng": 1037,
  "\u4e8b\u60c5": 1038,
  "\u2581tr\u01b0\u1eddng": 1039,
  "\u6765\u7684": 1040,
  "\u2581m\u1ee9c": 1041,
  "\u751a\u81f3": 1042,
  "\u2581b\u1ecf": 1043,
  "\u2581r\u1eddi": 1044,
  "\u2581\u0111\u1ed5i": 1045,
  "\u00f3c": 1046,
  "\u2581d\u1ee5ng": 1047,
  "\u00e3n": 1048,
  "i\u1ec3m": 1049,
  "\u1ee7y": 1050,
  "\u8fd9\u6837": 1051,
  "\u2581ph\u1ee7": 1052,
  "\u2581\u1ea5y": 1053,
  "\u2581th\u1ecb": 1054,
  "\u2581c\u00e2u": 1055,
  "\u2581v\u1ea1n": 1056,
  "\u2581m\u1edf": 1057,
  "\u2581v\u00e0ng": 1058,
  "\u2581Ch\u1ec9": 1059,
  "\u2581thu\u1eadt": 1060,
  "\u4fee\u4e3a": 1061,
  "\u2581d\u1eabn": 1062,
  "\u2581\u4ed6": 1063,
  "u\u1ed1t": 1064,
  "\u2581h\u1ed3n": 1065,
  "\u1ecbu": 1066,
  "\u2581ch\u1ed7": 1067,
  "\u2581t\u1ee5c": 1068,
  "\u2581kh\u1ebd": 1069,
  "\u00e9p": 1070,
  "\u2581h\u1ed3": 1071,
  "\u2581l\u1ea1nh": 1072,
  "\u2581m\u00e1u": 1073,
  "\u2581Ti\u00eau": 1074,
  "\u2581m\u00e0u": 1075,
  "\u2581t\u01b0\u1ee3ng": 1076,
  "\u8fd9\u91cc": 1077,
  "\u2581\u0111\u01b0a": 1078,
  "\u7684\u4e00": 1079,
  "\u2581k\u00edch": 1080,
  "\u5f00\u59cb": 1081,
  "\u2581d\u1ea7n": 1082,
  "\u2581Th\u00e0nh": 1083,
  "\u2581L\u1ee5c": 1084,
  "Ng": 1085,
  "\u2581\u0111\u1ea1t": 1086,
  "\u2581c\u01b0\u1eddng": 1087,
  "\u2581n\u1eef": 1088,
  "\u2581Ki\u1ebfm": 1089,
  "\u2581L\u00e2m": 1090,
  "\u2581tuy\u1ec7t": 1091,
  "\u2581tr\u00ed": 1092,
  "\u1eefu": 1093,
  "\u2581\u0111\u00e1ng": 1094,
  "\u2581ti\u00eau": 1095,
  "\u2581\u00e2m": 1096,
  "\u2581\u0111\u1ea5u": 1097,
  "\u2581Nam": 1098,
  "\u2581d\u01b0\u1eddng": 1099,
  "\u2581quanh": 1100,
  "\u2581t\u1ef1a": 1101,
  "\u2581danh": 1102,
  "\u00f3i": 1103,
  "\u2581b\u00f3ng": 1104,
  "\u4e4b\u524d": 1105,
  "\u81ea\u5df1\u7684": 1106,
  "\u2581c\u0103n": 1107,
  "\u1ea7ng": 1108,
  "\u4e0d\u4f1a": 1109,
  "\u2581di\u1ec7n": 1110,
  "\u2581kh\u1eafc": 1111,
  "\u2581th\u1eb3ng": 1112,
  "\u2581ti\u1ec1n": 1113,
  "\u2581bu": 1114,
  "u\u1ed1c": 1115,
  "\u2581V\u00f4": 1116,
  "\u957f\u8001": 1117,
  "\u2581t\u1ed5": 1118,
  "\u2581ti\u1ec3u": 1119,
  "\u2581\u8fd9": 1120,
  "\u00f2a": 1121,
  "\u2581thi": 1122,
  "\u8fc7\u6765": 1123,
  "\u2581quy\u1ebft": 1124,
  "\u2581l\u1ee3i": 1125,
  "\u2581d\u00e1m": 1126,
  "\u2581L\u1ea1c": 1127,
  "\u2581s\u00e2u": 1128,
  "\u2581ph\u1ee5": 1129,
  "\u1edbm": 1130,
  "\u2581ch\u1ecbu": 1131,
  "\u2581r\u01a1i": 1132,
  "\u2581\u0111\u1eb7c": 1133,
  "\u2581khu": 1134,
  "\u3002\u201d\u201c": 1135,
  "\u4e4b\u4e2d": 1136,
  "\u2581th\u00edch": 1137,
  "\u1ea3m": 1138,
  "\u2581\u0111\u1ed3": 1139,
  "\u2581\u0111i\u1ec7n": 1140,
  "\u2581t\u01b0\u1edfng": 1141,
  "\u2581gi\u1eef": 1142,
  "\u2581quay": 1143,
  "\u2581huynh": 1144,
  "\u2581\u0103n": 1145,
  "\u2581ch\u1ea1y": 1146,
  "\u00e9o": 1147,
  "\u2581so": 1148,
  "\u2581gi\u00e1": 1149,
  "\u2581vi\u1ec7n": 1150,
  "\u957f\u751f": 1151,
  "\u2581gi\u00e1c": 1152,
  "\u2581ho\u1eb7c": 1153,
  "\u2581t\u00e0i": 1154,
  "\u2581\u0111\u00e1": 1155,
  "\u2581b\u1ed1n": 1156,
  "\u2581s\u1edbm": 1157,
  "\u2581c\u00f4": 1158,
  "\u2581h\u00e0ng": 1159,
  "\u2581c\u1ed5": 1160,
  "\u2581ph\u1ea9m": 1161,
  "\u2581Ng\u1ecdc": 1162,
  "i\u1ec7ng": 1163,
  "\u5883\u754c": 1164,
  "\u2581Th\u00e1i": 1165,
  "\u2581t\u1ea7ng": 1166,
  "\u2581Nh\u00e2n": 1167,
  "\u2581\u0111\u1ec1": 1168,
  "\u2581tr\u1eafng": 1169,
  "\u2581l\u1eb7ng": 1170,
  "\u5fc3\u4e2d": 1171,
  "\u2581mi\u1ec7ng": 1172,
  "\u2581g\u1ecdi": 1173,
  "\u80fd\u591f": 1174,
  "\u2581n\u1eafm": 1175,
  "\u81ea\u7136": 1176,
  "\u4e00\u9053": 1177,
  "\u1ee9t": 1178,
  "\u2581coi": 1179,
  "\u2581thu\u1ed9c": 1180,
  "...\u201d": 1181,
  "\u7136\u540e": 1182,
  "\u2581m\u1eb7c": 1183,
  "\u2581ph\u00e1i": 1184,
  "\u2581chi\u1ebfc": 1185,
  "\u4e0b\u6765": 1186,
  "\u2581'": 1187,
  "\u2581d\u01b0\u1ee3c": 1188,
  "\u2581th\u1edf": 1189,
  "\u2581ph\u00e2n": 1190,
  "\u2581\u0111\u1ed9i": 1191,
  "\u2581\u0111\u00f4i": 1192,
  "\u2581\u0110\u01b0\u1eddng": 1193,
  "\u2581Hi\u00ean": 1194,
  "\u2581m\u01b0\u01a1i": 1195,
  "\u2581\u00c1": 1196,
  "\u4e0d\u80fd": 1197,
  "\u2581Tr\u00fac": 1198,
  "\u2581H\u1ed3ng": 1199,
  "\u2581ch\u1eafn": 1200,
  "\u2581h\u1ebft": 1201,
  "\u2581xong": 1202,
  "\u2581r\u00e0ng": 1203,
  "\u53ea\u6709": 1204,
  "\u51fa\u4e86": 1205,
  "\u01b0\u1ee1ng": 1206,
  "\u00fap": 1207,
  "\u9635\u6cd5": 1208,
  "\u2581ph\u1ea3n": 1209,
  "\u2581tr\u1ef1c": 1210,
  "\u76f4\u63a5": 1211,
  "\u2581\u0111o\u1ea1n": 1212,
  "\u2581t\u01b0\u01a1ng": 1213,
  "\u2581c\u1ea1nh": 1214,
  "\u2581mu": 1215,
  "in": 1216,
  "\u65e0\u6cd5": 1217,
  "\u2581ng\u1ed3i": 1218,
  "\u2581cung": 1219,
  "\u1ecda": 1220,
  "\u2581\u0111\u1ec9nh": 1221,
  "\u2581lu\u00f4n": 1222,
  "\u2581thay": 1223,
  "\u2581m\u1ed7i": 1224,
  "\u5e94\u8be5": 1225,
  "\u6240\u6709": 1226,
  "\u2581th\u00e1i": 1227,
  "\u2581nh\u1ecb": 1228,
  "\u2581Tinh": 1229,
  "\u2581\u1ee9ng": 1230,
  "\u2581t\u0103ng": 1231,
  "\u2581ma": 1232,
  "\u662f\u4e00": 1233,
  "\u2581ng\u1eebng": 1234,
  "\u1ea1p": 1235,
  "\u5f20\u60ac": 1236,
  "\u2581ch\u1eadm": 1237,
  "\u00e9n": 1238,
  "\u2581t\u0129nh": 1239,
  "\u2581hi\u1ec7u": 1240,
  "\u2581Ph\u01b0\u01a1ng": 1241,
  "\u2581c\u1ed1": 1242,
  "\u2581qu\u1ed1c": 1243,
  "\u2581Nh\u1eefng": 1244,
  "\u2581h\u1ec7": 1245,
  "\u2581c\u1ea7u": 1246,
  "\u2581ch\u1ea5t": 1247,
  "\u2581thi\u1ebfu": 1248,
  "\u2581\u1ea3nh": 1249,
  "\u2581n\u1eeda": 1250,
  "\u2581t\u1ea1o": 1251,
  "\u2581T\u00f4n": 1252,
  "Kh": 1253,
  "\u770b\u5230": 1254,
  "\u4fee\u884c": 1255,
  "\u5982\u4eca": 1256,
  "\u2581giao": 1257,
  "\u2581t\u00edch": 1258,
  "\u89c9\u5f97": 1259,
  "\u2581t\u1eadn": 1260,
  "\u4f3c\u4e4e": 1261,
  "\u2581h\u1eadu": 1262,
  "\u2581t\u00e1n": 1263,
  "\u2581x\u00e1c": 1264,
  "\u4f60\u4eec": 1265,
  "\u2581Thu": 1266,
  "\u2581\u0110\u1ebf": 1267,
  "\u2581\u00e1p": 1268,
  "\u2581\u0111\u00fang": 1269,
  "\u1ef1a": 1270,
  "\u2581d\u1ec5": 1271,
  "\u2581vang": 1272,
  "\u1ed9n": 1273,
  "\u2581b\u00ed": 1274,
  "\u53d1\u73b0": 1275,
  "\u00f3n": 1276,
  "\u2581h\u1eefu": 1277,
  "\u1eedu": 1278,
  "\u2581\u1ea9n": 1279,
  "\u2581gi\u00fap": 1280,
  "\u2581v\u1ecdng": 1281,
  "\u2581giai": 1282,
  "\u90a3\u4e2a": 1283,
  "\u2581h\u01b0\u1edbng": 1284,
  "\u2581v\u1eadn": 1285,
  "\u2581tu\u1ed5i": 1286,
  "\u8eab\u4e0a": 1287,
  "\u2581gi\u00e1o": 1288,
  "\u4fbf\u662f": 1289,
  "\u2581\u00e1o": 1290,
  "\u7684\u662f": 1291,
  "\u800c\u4e14": 1292,
  "\u2581t\u1eadp": 1293,
  "\u529b\u91cf": 1294,
  "\u2581t\u00e1c": 1295,
  "\u2581th\u1ea5t": 1296,
  "\u5b9e\u529b": 1297,
  "\u2581gi\u1ecdng": 1298,
  "\u7b51\u57fa": 1299,
  "\u2581th\u01b0": 1300,
  "\u2581Khuy\u1ebft": 1301,
  "\u1eb7n": 1302,
  "\u1ea9y": 1303,
  "\u4e0d\u77e5": 1304,
  "\u2581s\u1eafp": 1305,
  "\u4e1c\u897f": 1306,
  "\u2581\u0111\u1eddi": 1307,
  "\u4e0d\u77e5\u9053": 1308,
  "\u2581li\u1ec7u": 1309,
  "\u2581tr\u1ea7m": 1310,
  "\u90a3\u4e48": 1311,
  "\u2581\u0111\u01b0\u01a1ng": 1312,
  "\u2581xo": 1313,
  "\u2581b\u00e1o": 1314,
  "\u2581v\u1ee5": 1315,
  "\u4e16\u754c": 1316,
  "\u2581m\u00e0y": 1317,
  "\u4e00\u822c": 1318,
  "\u9700\u8981": 1319,
  "\u2581g\u1eadt": 1320,
  "\u60f3\u5230": 1321,
  "\u2581M\u00f4n": 1322,
  "\u7684\u65f6\u5019": 1323,
  "\u2581h\u00f4m": 1324,
  "\u2581Kh\u00ed": 1325,
  "\u2581Cung": 1326,
  "\u2581binh": 1327,
  "\u2581c\u00e2y": 1328,
  "\u2581v\u1ed9i": 1329,
  "\u8fc7\u53bb": 1330,
  "\u2581Chi": 1331,
  "\u5c31\u7b97": 1332,
  "\u2581Hoa": 1333,
  "\u2581ng\u00e0n": 1334,
  "\u8fd9\u662f": 1335,
  "\u7684\u5927": 1336,
  "\u77f3\u8f69": 1337,
  "\u2581Tu": 1338,
  "\u3002\u300d": 1339,
  "\u58f0\u97f3": 1340,
  "\u51fa\u73b0": 1341,
  "\u2581v\u01b0\u1ee3t": 1342,
  "\u7b2c\u4e00": 1343,
  "\u2581Anh": 1344,
  "\u4e00\u6837": 1345,
  "\u2581nh\u1eb9": 1346,
  "\u2581tranh": 1347,
  "\u2581d\u1ecb": 1348,
  "\u2581gh": 1349,
  "\u2581\u0111\u1ee3i": 1350,
  "\u2581y\u1ebfu": 1351,
  "\u2581v\u1ea5n": 1352,
  "\u2581l\u01b0u": 1353,
  "\u00eang": 1354,
  "\u2581lao": 1355,
  "\u2581ni\u00ean": 1356,
  "\u1ee3t": 1357,
  "\u6700\u540e": 1358,
  "\u91cc\u7684": 1359,
  "\u6b64\u65f6": 1360,
  "\u2581\u0111\u00e1p": 1361,
  "\u7adf\u7136": 1362,
  "\u2581t\u00f4i": 1363,
  "\u2581uy": 1364,
  "\u2581\u0111ao": 1365,
  "\u00e3y": 1366,
  "\u1eb3n": 1367,
  "\u2581\u0111\u00eam": 1368,
  "\u2581L\u01b0u": 1369,
  "\u2581ch\u1ee9": 1370,
  "\u6bd5\u7adf": 1371,
  "\u2581c\u1ee9u": 1372,
  "\u2581Xu\u00e2n": 1373,
  "\u2581th\u01b0\u1ee3ng": 1374,
  "\u2581n\u1eb1m": 1375,
  "\u4e3a\u4e86": 1376,
  "\u2581H\u00e0": 1377,
  "\u2581v\u00f2ng": 1378,
  "\u2581\u0111\u1ea3o": 1379,
  "\u2581h\u1eb3n": 1380,
  "\u2581t\u1ed1i": 1381,
  "\u2581T\u00edch": 1382,
  "\u2581\u0111\u1ecf": 1383,
  "\u2581b\u1edfi": 1384,
  "\u8eab\u4f53": 1385,
  "\u2581tr\u1ebb": 1386,
  "\u79bb\u5f00": 1387,
  "\u2581T\u01b0": 1388,
  "\u2581huy\u1ebft": 1389,
  "\u2581l\u01b0ng": 1390,
  "\u2581hoa": 1391,
  "\u70b9\u5934": 1392,
  "\u2581T\u1eeb": 1393,
  "\u2581nghi\u00eam": 1394,
  "\u4e00\u76f4": 1395,
  "\u76ee\u5149": 1396,
  "\u2581h\u1ed9": 1397,
  "\u2581nh\u1eadp": 1398,
  "\u611f\u89c9": 1399,
  "\u2581c\u1ea7m": 1400,
  "\u4efb\u4f55": 1401,
  "\u2581xanh": 1402,
  "un": 1403,
  "\u6709\u4e00": 1404,
  "\u60f3\u8981": 1405,
  "\u4e0b\u7684": 1406,
  "\u5b81\u7f3a": 1407,
  "\u2581tan": 1408,
  "Ta": 1409,
  "\u2581t\u1ee5": 1410,
  "\u2581anh": 1411,
  "\u2581Li\u00ean": 1412,
  "\u8fdb\u5165": 1413,
  "\u2581\u0111\u1eb7t": 1414,
  "\u2581ni\u1ec7m": 1415,
  "\u2581chu\u1ea9n": 1416,
  "\u8fd9\u4f4d": 1417,
  "\u2581ki\u1ebfn": 1418,
  "\u2581k\u00e9o": 1419,
  "\u2581m\u1ea1ng": 1420,
  "\u2581\u0111\u00f4ng": 1421,
  "\u2581ch\u1eb7t": 1422,
  "\u2581gi\u00f3": 1423,
  "\u800c\u662f": 1424,
  "\u2581phi": 1425,
  "\u2581d\u0129": 1426,
  "\u2581Qu\u1ed1c": 1427,
  "\u2581d\u1ef1a": 1428,
  "\u65e0\u6570": 1429,
  "\u53ea\u80fd": 1430,
  "\u4e00\u58f0": 1431,
  "\u2581quy": 1432,
  "\u2581kh\u1ea3": 1433,
  "\u2581C\u1eedu": 1434,
  "\u2581L\u0103ng": 1435,
  "\u2581ng\u01b0\u1ee3c": 1436,
  "\u2581h\u01b0": 1437,
  "\u2581vu": 1438,
  "\u2581\u0111o\u00e1n": 1439,
  "\u2581\u00c2": 1440,
  "\u2581minh": 1441,
  "\u5176\u4ed6": 1442,
  "\u2581k\u1ecb": 1443,
  "\u2581Gi\u1edbi": 1444,
  "\u4e24\u4e2a": 1445,
  "\u2581th\u00fac": 1446,
  "\u6839\u672c": 1447,
  "\u00e2ng": 1448,
  "\u58a8\u753b": 1449,
  "\u7684\u8bdd": 1450,
  "\u2581Tam": 1451,
  "\u5f88\u591a": 1452,
  "\u2581H\u01b0": 1453,
  "\u2581m\u1ea1ch": 1454,
  "\u2581nh\u1edb": 1455,
  "\u2581dung": 1456,
  "\u2581k\u1ec3": 1457,
  "\u2581t\u1ed1c": 1458,
  "\u2581S\u1edf": 1459,
  "\u2581th\u1ea5p": 1460,
  "\u95ee\u9898": 1461,
  "\u2581h\u1ea1i": 1462,
  "\u2581\u0111\u01a1n": 1463,
  "\u4f17\u4eba": 1464,
  "\u2581H\u00e0n": 1465,
  "\u1ed7ng": 1466,
  "\u2581xung": 1467,
  "\u2581tri\u1ec3n": 1468,
  "\u2581v\u1ebft": 1469,
  "\u2581m\u00f9": 1470,
  "\u2581T\u1ea7n": 1471,
  "\u2581n\u1ed9i": 1472,
  "\u2581D\u00f9": 1473,
  "Kh\u00f4ng": 1474,
  "\u51fa\u4e00": 1475,
  "\u2581Th\u1ee7y": 1476,
  "\u2581ch\u1ea5n": 1477,
  "\u53ea\u8981": 1478,
  "\u2581ch\u1ee9ng": 1479,
  "\u2581C\u00f3": 1480,
  "\u2581l\u1eeda": 1481,
  "\u773c\u775b": 1482,
  "\u2581D\u1ea1": 1483,
  "\u2581Ly": 1484,
  "\u2581x\u1ea3y": 1485,
  ":\u300c": 1486,
  "\u2581\u0111u": 1487,
  "\u2581Luy\u1ec7n": 1488,
  "\u4eff\u4f5b": 1489,
  "\u2581\u0111\u1ed9c": 1490,
  "\u2581k\u1ef9": 1491,
  "\u2581L\u00fac": 1492,
  "\u4e0d\u5230": 1493,
  "\u2581l\u0129nh": 1494,
  "\u2581m\u1ec7nh": 1495,
  "\u51e0\u4e2a": 1496,
  "\u2581an": 1497,
  "\u2581s\u00e1ch": 1498,
  "\u2581th\u00e1ng": 1499,
  "\u2581ch\u00e9m": 1500,
  "\u2581r\u00e3i": 1501,
  "\u1ecdt": 1502,
  "\u2014\u2014": 1503,
  "\u5c0f\u5ddd": 1504,
  "\u2581t\u01b0\u1edbng": 1505,
  "i\u00eam": 1506,
  "\u5f53\u7136": 1507,
  "\u2581Ph\u00e1p": 1508,
  "\u2581\u0111\u1ee1": 1509,
  "\u2581C\u1ea3nh": 1510,
  "\u2581T\u1ec1": 1511,
  "\u2581t\u1ed3n": 1512,
  "\u2581ch\u1ecdn": 1513,
  "\u2581hi\u1ec3m": 1514,
  "\u2581H\u1eafc": 1515,
  "\u2581Nguy\u1ec7t": 1516,
  "\u2581th\u1ea7m": 1517,
  "\u2581nhi\u00eau": 1518,
  "\u2581tho\u00e1t": 1519,
  "\u2581t\u1ebf": 1520,
  "\u2581Ng\u01b0\u1eddi": 1521,
  "\u795e\u901a": 1522,
  "\u2581s\u01a1n": 1523,
  "\u9648\u957f\u751f": 1524,
  "\u7ee7\u7eed": 1525,
  "\u2581ngh\u0129a": 1526,
  "\u5176\u4e2d": 1527,
  "\u5730\u65b9": 1528,
  "\u771f\u4eba": 1529,
  "\u9648\u8ff9": 1530,
  "\u2581\u0110\u1ecb": 1531,
  "\u4e00\u4e9b": 1532,
  "\u00f3t": 1533,
  "\u2581-": 1534,
  "\u1eadc": 1535,
  "\u2581tr\u00ecnh": 1536,
  "\u2581Y\u00eau": 1537,
  "\u5fae\u5fae": 1538,
  "\u2581b\u1ea3y": 1539,
  "\u540c\u65f6": 1540,
  "\u4e4b\u95f4": 1541,
  "\u2581kh\u00e1ch": 1542,
  "\u2581qu\u00e1i": 1543,
  "\u2581C\u1ed5": 1544,
  "\u2581V\u1ea1n": 1545,
  "\u2581c\u00e1nh": 1546,
  "\u5929\u5730": 1547,
  "\u4e0d\u4f4f": 1548,
  "\u2581tung": 1549,
  "\u7684\u90a3": 1550,
  "?\u201d\u201c": 1551,
  "\u2581H\u1ee9a": 1552,
  "\u2581m\u1ec9": 1553,
  "\u5982\u4f55": 1554,
  "\u2581Tuy": 1555,
  "\u2581ch\u1eb1m": 1556,
  "\u2581su\u1ed1t": 1557,
  "\u1edbp": 1558,
  "\u2581v\u1ec7": 1559,
  "\u5e08\u6625": 1560,
  "\u6574\u4e2a": 1561,
  "\u2581thi\u1ebft": 1562,
  "\u2581kim": 1563,
  "\u2581th\u1ea1ch": 1564,
  "\u771f\u7684": 1565,
  "\u660e\u767d": 1566,
  "\u2581b\u1ed1i": 1567,
  "\u2581ngo\u1ea1i": 1568,
  "\u91d1\u4e39": 1569,
  "\u2581ch\u1eef": 1570,
  "\u53ef\u662f": 1571,
  "\u2581v\u1ef1c": 1572,
  "\u2581\u0110\u00e2y": 1573,
  "\u6210\u4e86": 1574,
  "on": 1575,
  "\u2581l\u00e1t": 1576,
  "\u2581L\u00e3o": 1577,
  "\u6d88\u606f": 1578,
  "\u2581ti\u1ec7n": 1579,
  "\u80af\u5b9a": 1580,
  "\u2581Khi": 1581,
  "\u2581nam": 1582,
  "Tr": 1583,
  "\u2581qu\u1ef7": 1584,
  "\u2581quen": 1585,
  "\u2581\u0110\u00f4ng": 1586,
  "\u2581lo\u1ea1n": 1587,
  "\u2581ban": 1588,
  "Ng\u01b0\u01a1i": 1589,
  "\u60c5\u51b5": 1590,
  "\u6e05\u695a": 1591,
  "\u2581Quan": 1592,
  "\u2581tr\u00ec": 1593,
  "\u2581r\u00fat": 1594,
  "\u2581kh\u1eafp": 1595,
  "\u2581s\u1eed": 1596,
  "\u2581k\u1ecbp": 1597,
  "\u2581b\u1ea1i": 1598,
  "\u5728\u8fd9": 1599,
  "\u2581di\u1ec7t": 1600,
  "\u2581ho\u00e0ng": 1601,
  "\u2581tr\u00e1nh": 1602,
  "\u2581H\u1ecfa": 1603,
  "\u2581t\u1ea5n": 1604,
  "\u2581d\u1eebng": 1605,
  "\u2581l\u1eafc": 1606,
  "\u5b8c\u5168": 1607,
  "\u2581xe": 1608,
  "\u00e3nh": 1609,
  "\u5374\u662f": 1610,
  "\u2581th\u1eeba": 1611,
  "\u2581Hai": 1612,
  "\u6218\u6597": 1613,
  "\u6216\u8005": 1614,
  "\u2581b\u1eadc": 1615,
  "\u5b97\u95e8": 1616,
  "\u1eb9p": 1617,
  "\u2581ch\u00f3ng": 1618,
  "\u2581tr\u1ea1ng": 1619,
  "\u5e26\u7740": 1620,
  "\u2581sai": 1621,
  "\u2581bi\u1ec3n": 1622,
  "\u2581Uy": 1623,
  "\u2581h\u1ecfa": 1624,
  "\u2581T\u00e2y": 1625,
  "\u51c6\u5907": 1626,
  "\u2581che": 1627,
  "\u90fd\u4e0d": 1628,
  "\u2581xuy\u00ean": 1629,
  "\u2581l\u1ea1c": 1630,
  "\u2581t\u00e0n": 1631,
  "\u2581e": 1632,
  "\u2581ph\u00f9": 1633,
  "\u2581v\u0103n": 1634,
  "\u2581kho\u1ea3ng": 1635,
  "\u2581quy\u1ec1n": 1636,
  "\u2581ng\u1ed9": 1637,
  "\u2581v\u1ee1": 1638,
  "\u53f6\u5c0f\u5ddd": 1639,
  "\u2581ph\u1eadn": 1640,
  "\u2581th\u1eed": 1641,
  "\u2581th\u1ed1ng": 1642,
  "\u771f\u6b63": 1643,
  "\u2581r\u1ed9ng": 1644,
  "\u2581C\u00e1c": 1645,
  "\u5e76\u4e0d": 1646,
  "\u1ed5n": 1647,
  "\u5bf9\u4e8e": 1648,
  "\u00e8n": 1649,
  "\u2581Ch\u00e2u": 1650,
  "\u773c\u524d": 1651,
  "\u2581\u0111\u00edch": 1652,
  "\u5f53\u5e74": 1653,
  "\u2581\u0111\u1ed5": 1654,
  "\u2581h\u00e3i": 1655,
  "\u2581ki\u1ebfp": 1656,
  "\u95ee\u9053": 1657,
  "\u4e24\u4eba": 1658,
  "\u4e0d\u5f97": 1659,
  "\u5e08\u5144": 1660,
  "\u2581tr\u00f4ng": 1661,
  "\u2581t\u00f9": 1662,
  "\u2581nh\u1eafc": 1663,
  "\u1eabu": 1664,
  "\u2581ch\u1ed1ng": 1665,
  "\u2581t\u00e1m": 1666,
  "\u5f3a\u8005": 1667,
  "\u2581l\u1ec7": 1668,
  "\u4ee5\u4e3a": 1669,
  "\u2581l\u1ee5c": 1670,
  "\u5ffd\u7136": 1671,
  "\u2581ng\u00e0i": 1672,
  "\u2581ng\u1ea1c": 1673,
  "\u2581\u0110\u1ecba": 1674,
  "\u1ec1m": 1675,
  "\u2581tham": 1676,
  "\u529f\u6cd5": 1677,
  "\u4e0d\u5c11": 1678,
  "\u2581M\u1ea1c": 1679,
  "\u4e00\u4e0b": 1680,
  "\u2581Ng\u00f4": 1681,
  "\u2581Ngay": 1682,
  "\u2581gi\u1eadn": 1683,
  "\u82e5\u662f": 1684,
  "\u2581cu\u1ed3ng": 1685,
  "\u2581K\u1ef3": 1686,
  "\u2581s\u1edf": 1687,
  "\u2581m\u0169": 1688,
  "\u2581b\u1ed7ng": 1689,
  "\u2581vui": 1690,
  "\u2581t\u1ef7": 1691,
  "\u8001\u5e08": 1692,
  "\u2581m\u1eadt": 1693,
  "\u2581ngang": 1694,
  "\u2581s\u00e1u": 1695,
  "\u2581l\u1ec7nh": 1696,
  "\u2581ch\u1edbp": 1697,
  "\u2581Th\u01b0": 1698,
  "\u2581d\u00e1ng": 1699,
  "\u6cd5\u5b9d": 1700,
  "\u4e00\u8d77": 1701,
  "\u77ac\u95f4": 1702,
  "\u2581M\u1ed9c": 1703,
  "\u7136\u800c": 1704,
  "\u53d8\u5f97": 1705,
  "\u5176\u5b9e": 1706,
  "\u2581Du": 1707,
  "\u4e00\u70b9": 1708,
  "\u2581th\u1eafng": 1709,
  "\u2581r\u1ed1t": 1710,
  "\u5728\u4e86": 1711,
  "\u1ea9u": 1712,
  "\u2581M\u00e0": 1713,
  "\u2581R": 1714,
  "\u2581tr\u1ea3": 1715,
  "\u7684\u4e8b\u60c5": 1716,
  "\u4f46\u662f": 1717,
  "\u2581kh\u1ed5ng": 1718,
  "\u2581l\u1ed3": 1719,
  "\u2581sang": 1720,
  "\u2581tra": 1721,
  "\u2581tr\u1ea5n": 1722,
  "\u2581Ta": 1723,
  "\u2581ch\u01b0\u1edfng": 1724,
  "\u6709\u4eba": 1725,
  "\u51fa\u624b": 1726,
  "\u2581ch\u1edd": 1727,
  "\u1ebfp": 1728,
  "\u2581gi\u1ea5u": 1729,
  "Nh": 1730,
  "\u2581h\u1ea1n": 1731,
  "\u591a\u5c11": 1732,
  "\u2581b\u1ed1": 1733,
  "\u2581\u0111\u1ecbch": 1734,
  "\u00edn": 1735,
  "\u1ecfng": 1736,
  "\u7a81\u7136": 1737,
  "\u50cf\u662f": 1738,
  "\u2581b\u00e0i": 1739,
  "\u2581tr\u1ea3i": 1740,
  "\u2581Tang": 1741,
  "\u2581ng\u1ecdn": 1742,
  "\u2581Tr\u00ean": 1743,
  "\u2581k\u1ebf": 1744,
  "\u2581khai": 1745,
  "\u2581t\u00f4n": 1746,
  "\u2581Vi\u1ec7n": 1747,
  "\u2581di\u1ec5n": 1748,
  "\u2581\u5728": 1749,
  "\u2581B\u00e0n": 1750,
  "\u2581tr\u00e0n": 1751,
  "\u5b58\u5728": 1752,
  "\u2581Cho": 1753,
  "\u2581duy": 1754,
  "\u51fa\u53bb": 1755,
  "\u2581\u0111\u1eebng": 1756,
  "\u7ec8\u4e8e": 1757,
  "\u2581T\u00f4": 1758,
  "\u9762\u524d": 1759,
  "\u53e3\u6c14": 1760,
  "\u2581b\u1ea7u": 1761,
  "\u2581tia": 1762,
  "\u6c14\u606f": 1763,
  "\u2581g\u00e2y": 1764,
  "\u2581lu\u1ed3ng": 1765,
  "\u01b0\u1ee3n": 1766,
  "\u2581chi\u00eau": 1767,
  "\u2581m\u1ea3nh": 1768,
  "\u7684\u795e": 1769,
  "\u2581H\u1ed3": 1770,
  "\u2581tr\u1ee3": 1771,
  "\u5143\u5a74": 1772,
  "\u2581t\u1ea7m": 1773,
  "\u2581l\u1ea1": 1774,
  "\u2581ng\u0103n": 1775,
  "\u2581tai": 1776,
  "\u2581d\u1eady": 1777,
  "\u2581t\u01b0\u1eddng": 1778,
  "\u518d\u6b21": 1779,
  "\u2581d\u1eef": 1780,
  "\u2581\u00c2m": 1781,
  "\u2581C\u00f2n": 1782,
  "........": 1783,
  "\u1ee7ng": 1784,
  "\u591c\u6b87": 1785,
  "\u2581An": 1786,
  "\u9762\u7684": 1787,
  "\u2581Quang": 1788,
  "\u2581T\u00e2m": 1789,
  "\u2581gi\u1ea3n": 1790,
  "\u2581x\u01b0a": 1791,
  "\u4ee5\u53ca": 1792,
  "\u2581m\u1ebd": 1793,
  "\u2581d\u00e0ng": 1794,
  "\u2581xoay": 1795,
  "\u2581Ng\u0169": 1796,
  "\u2581Th\u1ea5t": 1797,
  "\u2581\u0110\u1ed3": 1798,
  "\u2581H\u01a1n": 1799,
  "\u2581y\u00ean": 1800,
  "\u6447\u5934": 1801,
  "\u901f\u5ea6": 1802,
  "\u1ec5n": 1803,
  "\u2581qu\u00fd": 1804,
  "\u2581u": 1805,
  "\u2581nguy": 1806,
  "\u2581b\u1ea1c": 1807,
  "\u2581n\u1ed5": 1808,
  "\u2581k\u00ednh": 1809,
  "\u2581ng\u01b0ng": 1810,
  "\u4e00\u6b21": 1811,
  "\u2581h\u01b0\u1edfng": 1812,
  "\u2581nh\u1edd": 1813,
  "\u2581trang": 1814,
  "\u54ea\u6015": 1815,
  "\u2581\u800c": 1816,
  "\u7a81\u7834": 1817,
  "\u7a7a\u95f4": 1818,
  "\u2581v\u01b0\u01a1ng": 1819,
  "\u2581m\u1ec9m": 1820,
  "\u2581H\u00e0nh": 1821,
  "\u2581B\u1ea3o": 1822,
  "\u2581Nhi": 1823,
  "\u2581\u0111u\u1ed5i": 1824,
  "\u2581n\u1eb7ng": 1825,
  "\u00edu": 1826,
  "\u6cd5\u529b": 1827,
  "\u2581tr\u1ed1n": 1828,
  "\u7acb\u523b": 1829,
  "\u2581d\u00f2": 1830,
  "\u2581\u0110i\u1ec7n": 1831,
  "\u2581Tri\u1ec7u": 1832,
  "\u2581Tr\u01b0\u1edbc": 1833,
  "\u2581tri\u1ec1u": 1834,
  "\u6b64\u523b": 1835,
  "\u6765\u4e86": 1836,
  "\u6709\u4e86": 1837,
  "i\u00eang": 1838,
  "\u2581Tr\u1eadn": 1839,
  "\u4e0d\u540c": 1840,
  "\u542c\u5230": 1841,
  "\u51e0\u4e4e": 1842,
  "\u2581\u1ea5n": 1843,
  "\u2581t\u1ea5m": 1844,
  "\u5c31\u5728": 1845,
  "\u7684\u8eab": 1846,
  "\u2581d\u00e2n": 1847,
  "\u6765\u8bf4": 1848,
  "\u2581Gi\u00e1o": 1849,
  "\u5bb6\u4f19": 1850,
  "\u2581B\u1eafc": 1851,
  "\u2581s\u01a1": 1852,
  "\u2581ng\u1ef1a": 1853,
  "\u2581ri\u00eang": 1854,
  "\u7684\u7075": 1855,
  "\u8138\u8272": 1856,
  "\u2581m\u01a1": 1857,
  "\u2581ng\u1ecdc": 1858,
  "\u2581gi\u00e1p": 1859,
  "\u81f3\u4e8e": 1860,
  "\u2581\u4e00": 1861,
  "\u5c45\u7136": 1862,
  "\u2581h\u00f2a": 1863,
  "\u2581H\u1ed3n": 1864,
  "\u2581\u0111\u1ebf": 1865,
  "\u2581m\u0169i": 1866,
  "\u770b\u6765": 1867,
  "\u2581v\u00e2y": 1868,
  "\u2581Th\u00f4ng": 1869,
  "\u2581\u1ed5n": 1870,
  "\u2581l\u1eafng": 1871,
  "\u1ed7n": 1872,
  "\u2581tr\u1eeb": 1873,
  "\u53bb\u4e86": 1874,
  "\u2581kh\u1ed5": 1875,
  "\u2581\u0110\u1ed1i": 1876,
  "\u9664\u4e86": 1877,
  "\u4e39\u836f": 1878,
  "\u2581\u0111au": 1879,
  "\u8272\u7684": 1880,
  "\u2581B\u00ecnh": 1881,
  "\u2581n\u01b0\u01a1ng": 1882,
  "\u673a\u4f1a": 1883,
  "\u2581b\u00e2y": 1884,
  "\u2581kh\u00f4i": 1885,
  "\u2581tr\u00f2": 1886,
  "\u968f\u7740": 1887,
  "\u2581t\u00f2a": 1888,
  "\u4e4b\u4e0b": 1889,
  "\u6d88\u5931": 1890,
  "\u8ba9\u4ed6": 1891,
  "\u2581t\u00f9y": 1892,
  "\u2581Nh\u00ecn": 1893,
  "\u975e\u5e38": 1894,
  "\u2581phu": 1895,
  "\u2581\u4f46": 1896,
  "\u2581lui": 1897,
  "\u53d1\u751f": 1898,
  "\u2581\u0111\u00e0n": 1899,
  "\u2581Th\u01b0\u1ee3ng": 1900,
  "\u2581l\u1ec5": 1901,
  "\u2581ti\u1ebft": 1902,
  "\u770b\u5411": 1903,
  "\u2581T\u1ed1ng": 1904,
  "\u2581Vi\u00ean": 1905,
  "\u4e0d\u65ad": 1906,
  "\u6765\u5230": 1907,
  "\u2581ch\u1ea1m": 1908,
  "\u2581\u00e9p": 1909,
  "\u2581t\u1ecfa": 1910,
  "\u4e4b\u529b": 1911,
  "\u529e\u6cd5": 1912,
  "\u2581tr\u00e1i": 1913,
  "\u2581kh\u00e1": 1914,
  "\u2581li\u1ec7t": 1915,
  "\u2581nghi\u1ec7m": 1916,
  "\u2581Qu\u1ef7": 1917,
  "\u2581th\u00f9": 1918,
  "\u4e5f\u6ca1": 1919,
  "\u2581b\u00e1n": 1920,
  "\u666e\u901a": 1921,
  "\",": 1922,
  "\u7684\u624b": 1923,
  "\u2581m\u00e0n": 1924,
  "\u7b49\u4eba": 1925,
  "\u7f13\u7f13": 1926,
  "\u2581m\u1ee5c": 1927,
  "\u2581ch\u00edn": 1928,
  "\u1eabm": 1929,
  "\u2581L\u00f4i": 1930,
  "i\u1ec5u": 1931,
  "\u2581gi\u00e0": 1932,
  "\u2581l\u1edbp": 1933,
  "\u2581b\u1ee9c": 1934,
  "\u624d\u80fd": 1935,
  "\u2581\u0111i\u00ean": 1936,
  "\u2581di": 1937,
  "\u2581\u0111\u1eafc": 1938,
  "\u770b\u4e86": 1939,
  "\u00f3e": 1940,
  "\u2581o": 1941,
  "\u5148\u751f": 1942,
  "\u6216\u8bb8": 1943,
  "\u2581c\u1ee5c": 1944,
  "\u2581x\u1ebfp": 1945,
  "\u2581k\u00fd": 1946,
  "\u6b63\u5728": 1947,
  "\u2581v\u00f5": 1948,
  "\u2581s\u1ea1ch": 1949,
  "\u2581k\u00e9m": 1950,
  "\u2581b\u0103ng": 1951,
  "\u65e0\u6bd4": 1952,
  "\u2581ch\u1ee9c": 1953,
  "\u4e0d\u53ef": 1954,
  "\u2581ng\u1ee7": 1955,
  "\u2581\u0111em": 1956,
  "\u66f4\u662f": 1957,
  "\u2581N\u00e0ng": 1958,
  "\u2581kho\u1ea3nh": 1959,
  "\u4e5f\u6ca1\u6709": 1960,
  "\u2581ng\u1eafn": 1961,
  "\u65e2\u7136": 1962,
  "\u2581l\u00f4i": 1963,
  "\u2581ph\u00f3": 1964,
  "\u7ad9\u5728": 1965,
  "\u2581Huy\u1ebft": 1966,
  "\u8f6e\u56de": 1967,
  "\u2581C\u00f4ng": 1968,
  "\u2581ng\u0169": 1969,
  "\u2581mua": 1970,
  "\u2581ki\u00ean": 1971,
  "\u90e8\u5206": 1972,
  "i\u1ebfng": 1973,
  "\u2581qu\u1ea3n": 1974,
  "\u6211\u7684": 1975,
  "\u2581l\u1eafm": 1976,
  "\u2581\u0111\u00ecnh": 1977,
  "\u4eca\u5929": 1978,
  "\u4e4b\u4e0a": 1979,
  "\u2581H\u00f3a": 1980,
  "\u2581hung": 1981,
  "\u2581li\u1ebfc": 1982,
  "\u2581tr\u00e1ch": 1983,
  "\u01b0\u1edbi": 1984,
  "\u1ee5y": 1985,
  "\u540c\u6837": 1986,
  "\u2581t\u1ec9nh": 1987,
  "\u2581ti\u1ebfc": 1988,
  "\u2581ng\u00f3n": 1989,
  "\u4e0b\u53bb": 1990,
  "\u8d8a\u6765": 1991,
  "\u2581h\u1ea3i": 1992,
  "\u2581su": 1993,
  "\u2581th\u1ee5": 1994,
  "\u6b63\u662f": 1995,
  "\u2581x\u00f4ng": 1996,
  "\u2581r\u1ef1c": 1997,
  "\u4e00\u773c": 1998,
  "\u2581\u0110\u1ed3ng": 1999,
  "\u2581Lan": 2000,
  "\u2581nh\u1ea1t": 2001,
  "\u4e00\u4f4d": 2002,
  "\u8d8a\u6765\u8d8a": 2003,
  "\u2581th\u1ea5u": 2004,
  "\u4e09\u5341": 2005,
  "\u521a\u624d": 2006,
  "!\u201d\u201c": 2007,
  "\u2581cu\u1ed9n": 2008,
  "\u2581l\u01b0\u1ee3t": 2009,
  "\u2581tr\u1ecb": 2010,
  "\u7684\u5c0f": 2011,
  "\u2581nh\u00edu": 2012,
  "\u2581lu\u1eadn": 2013,
  "\u2581H\u1ecda": 2014,
  "\u2581ph\u00f3ng": 2015,
  "\u2581thu\u1ea7n": 2016,
  "\u2581N\u00f3i": 2017,
  "\u5e74\u8f7b": 2018,
  "\u2581Ph\u00f9": 2019,
  "\u96be\u4ee5": 2020,
  "\u2581th\u1ecbt": 2021,
  "\u2581Th\u1eadp": 2022,
  "\u8fd9\u624d": 2023,
  "\u4e3a\u4ec0\u4e48": 2024,
  "\u2581v\u0169": 2025,
  "\u4e0d\u8981": 2026,
  "\u2581t\u1ed5n": 2027,
  "\u2581ph\u1ea1m": 2028,
  "\u653b\u51fb": 2029,
  "\u51fa\u6765\u7684": 2030,
  "\u2581H\u1ed9i": 2031,
  "\u2581vi\u1ebft": 2032,
  "\u2581ph\u00e0m": 2033,
  "\u5927\u5bb6": 2034,
  "\u2581Ba": 2035,
  "\u2581g\u01b0\u01a1ng": 2036,
  "i\u1ec5m": 2037,
  "\u4e00\u5b9a": 2038,
  "\u2581n\u00e1t": 2039,
  "\u2581ng\u1ed9t": 2040,
  "\u2581x\u00fac": 2041,
  "\u4e00\u8fb9": 2042,
  "\u539f\u672c": 2043,
  "\u7684\u5929": 2044,
  "\u2581d\u1ea5u": 2045,
  "\u2581Lu\u00e2n": 2046,
  "\u8eab\u540e": 2047,
  "\u2581B\u00e1ch": 2048,
  "\u8d70\u4e86": 2049,
  "\u2581Nh\u1ea5t": 2050,
  "\u2581tuy\u1ebft": 2051,
  "\u00f9a": 2052,
  "\u2581c\u1ee9ng": 2053,
  "\u987f\u65f6": 2054,
  "\u2581Phi": 2055,
  "\u540d\u5e08": 2056,
  "\u2581ch\u1ee5c": 2057,
  "\u2581\u0111\u00e0i": 2058,
  "\u00eanh": 2059,
  "\u7b80\u5355": 2060,
  "\u2581V\u0103n": 2061,
  "\u2581truy": 2062,
  "\u2581nhi\u1ec7m": 2063,
  "\u2581bang": 2064,
  "\u4f53\u5185": 2065,
  "\u2581ph\u00fa": 2066,
  "\u6210\u4e3a": 2067,
  "\u2581v\u00f9ng": 2068,
  "\u5979\u7684": 2069,
  "\u65e0\u8bba": 2070,
  "\u2581c\u1eadu": 2071,
  "\u1eb7m": 2072,
  "\u70bc\u5236": 2073,
  "\u2581m\u00f3n": 2074,
  "le": 2075,
  "\u2581ph\u1ee9c": 2076,
  "\u771f\u662f": 2077,
  "\u66fe\u7ecf": 2078,
  "\u2581c\u1ea9n": 2079,
  "\u8138\u4e0a": 2080,
  "\u2581m\u00e2y": 2081,
  "\u2581d\u00f2ng": 2082,
  "\u90a3\u4f4d": 2083,
  "\u8bb8\u591a": 2084,
  "\u4e86\u8d77\u6765": 2085,
  "\u597d\u7684": 2086,
  "\u91cd\u8981": 2087,
  "\u2581nh\u1ecbn": 2088,
  "\u2581ch\u1eebng": 2089,
  "\u54ea\u91cc": 2090,
  "\u53d8\u5316": 2091,
  "\u4e0d\u4e86": 2092,
  "\u2581Ph\u1ee7": 2093,
  "\u4f60\u7684": 2094,
  "\u624b\u4e2d": 2095,
  "\u2581ng\u1ea9n": 2096,
  "\u2581Uy\u00ean": 2097,
  "\u6c89\u9ed8": 2098,
  "\u8bb8\u4e50": 2099,
  "\u2581\u0111\u1eb9p": 2100,
  "\u5012\u662f": 2101,
  "\u2581\u1ea3o": 2102,
  "\u2581Ch\u00ednh": 2103,
  "\u5148\u524d": 2104,
  "\u2581Tr\u00ec": 2105,
  "\u6210\u529f": 2106,
  "\u2581\u0111o\u1ea1t": 2107,
  "\u2581tam": 2108,
  "\u2581s\u00f3ng": 2109,
  "\u8fc7\u4e86": 2110,
  "\u2581th\u00e2m": 2111,
  "\u2581\u674e": 2112,
  "\u5927\u4eba": 2113,
  "\u8d77\u4e86": 2114,
  "\u7684\u58f0\u97f3": 2115,
  "\u4e5f\u6709": 2116,
  "\u5173\u7cfb": 2117,
  "\u7edd\u5bf9": 2118,
  "\u4e0d\u6562": 2119,
  "\u2581bi\u1ec3u": 2120,
  "\u2581m\u01b0a": 2121,
  "\u1edbt": 2122,
  "\u2581t\u00e0": 2123,
  "\u2581canh": 2124,
  "\u4f9d\u7136": 2125,
  "\u2581b\u1eafn": 2126,
  "\u5f3a\u5927": 2127,
  "\u2581t\u1ecf": 2128,
  "\u4fee\u771f": 2129,
  "\u91cc\u9762": 2130,
  "\u5f88\u5feb": 2131,
  "\u8bf4\u8bdd": 2132,
  "\u2581ch\u1ea3y": 2133,
  "\u2581Danh": 2134,
  "\u2581da": 2135,
  "\u2581\u0110o": 2136,
  "\u4eba\u90fd": 2137,
  "\u2581m\u1ed1i": 2138,
  "\u2581Nghe": 2139,
  "\u2581chi\u1ebfu": 2140,
  "\u610f\u601d": 2141,
  "\u2581H\u1ea1o": 2142,
  "\u5b9e\u5728": 2143,
  "\u2581b\u00e0": 2144,
  "\u2581c\u0169": 2145,
  "\u5b66\u9662": 2146,
  "\u6050\u6015": 2147,
  "\u597d\u50cf": 2148,
  "\u2581Nh\u01b0": 2149,
  "\u2581H\u01b0u": 2150,
  "\u5c31\u80fd": 2151,
  "\u4e86\u4e00\u4e0b": 2152,
  "\u4f9d\u65e7": 2153,
  "\u7b2c\u4e8c": 2154,
  "\u00f9i": 2155,
  "\u66f4\u52a0": 2156,
  "\u4e4b\u5916": 2157,
  "\u6ca1\u60f3\u5230": 2158,
  "\u2581\u00d4": 2159,
  "\u8ddd\u79bb": 2160,
  "\u2581\u0111o\u00e0n": 2161,
  "\u1eb9n": 2162,
  "\u4e0d\u53ef\u80fd": 2163,
  "\u2581cu\u1ed1n": 2164,
  "\u4f5c\u4e3a": 2165,
  "\u2581th\u1eadn": 2166,
  "\u2581t\u1ea1m": 2167,
  "\u2581ki\u1ec3m": 2168,
  "\u2581run": 2169,
  "\u2581t\u1ea1p": 2170,
  "\u610f\u8bc6": 2171,
  "\u5373\u4fbf": 2172,
  "\u2581Kinh": 2173,
  "\u2581Vi\u00eam": 2174,
  "\u2581t\u1ee9": 2175,
  "\u2581lai": 2176,
  "\u8fd8\u8981": 2177,
  "\u2581ho\u1ea1ch": 2178,
  "\u5230\u5e95": 2179,
  "\u00e3ng": 2180,
  "\u5b66\u751f": 2181,
  "\u2581\u0111\u1ea9y": 2182,
  "\u2581b\u1ea1n": 2183,
  "\u2581u\u1ed1ng": 2184,
  "\u2581t\u01b0\u01a1i": 2185,
  "\u2581Nh\u1ecb": 2186,
  "\u2581nh\u1ea3y": 2187,
  "\u4e00\u6b65": 2188,
  "\u2581l\u00e1": 2189,
  "\u7a7a\u4e2d": 2190,
  "\u2581ch\u1ee3t": 2191,
  "\u7ed3\u679c": 2192,
  "\u2581thu\u1eadn": 2193,
  "\u2581\u0111\u00e0nh": 2194,
  "\u5f00\u53e3": 2195,
  "\u2581d\u1ee9t": 2196,
  "\u2581\u90a3": 2197,
  "\u9762\u5bf9": 2198,
  "\u2581Nh\u1ea1c": 2199,
  "\u2581thuy\u1ec1n": 2200,
  "\u2581\u300c": 2201,
  "\u2581hoang": 2202,
  "\u2581hu\u1ed1ng": 2203,
  "\u2581s\u00f3t": 2204,
  "\u901a\u8fc7": 2205,
  "\u01b0\u1ee3u": 2206,
  "\u70bc\u4e39": 2207,
  "\u6709\u4ec0\u4e48": 2208,
  "\u2581vai": 2209,
  "\u4e0d\u9519": 2210,
  "\u2581\u3010": 2211,
  "\u4ee5\u540e": 2212,
  "\u2581l\u00f3e": 2213,
  "\u2581\u0111\u00e2m": 2214,
  "\u90fd\u6ca1\u6709": 2215,
  "\u2581nh\u1ee5c": 2216,
  "\u201d,": 2217,
  "\u5168\u90e8": 2218,
  "?\u300d": 2219,
  "\u5f97\u5230": 2220,
  "\u2581c\u1ea3n": 2221,
  "\u5341\u5206": 2222,
  "\u9f50\u4f11": 2223,
  "\u2581c\u1ef1": 2224,
  "\u7247\u523b": 2225,
  "\u591a\u5e74": 2226,
  "\u9053\u53cb": 2227,
  "\u4eba\u95f4": 2228,
  "\u770b\u89c1": 2229,
  "\u53d1\u51fa": 2230,
  "\u2581ngu": 2231,
  "\u1ee1ng": 2232,
  "\u5bb9\u6613": 2233,
  "\u786e\u5b9e": 2234,
  "\u4e0d\u4ec5": 2235,
  "\u2581ch\u1ea5p": 2236,
  "\u2581x\u1eed": 2237,
  "\u2581c\u1ed9ng": 2238,
  "\u7740\u4e00": 2239,
  "\u2581Theo": 2240,
  "\u5e76\u6ca1\u6709": 2241,
  "\u2581t\u1ed5ng": 2242,
  "\u7075\u9b42": 2243,
  "\u2581to\u00e1n": 2244,
  "\u2581m\u01b0\u1ee3n": 2245,
  "\u2581may": 2246,
  "\u2581d\u01b0\u1ee1ng": 2247,
  "\u2581ch\u1ee9a": 2248,
  "\u2581d\u1ef1ng": 2249,
  "\u2581kh\u1ed1ng": 2250,
  "\u2581r\u01b0\u1ee3u": 2251,
  "\u2581chi\u1ebfm": 2252,
  "\u7684\u9053": 2253,
  "\u8fd9\u6b21": 2254,
  "\u2581s\u00e2n": 2255,
  "\u7384\u9ec4": 2256,
  "\u1ee5i": 2257,
  "\u4f4f\u4e86": 2258,
  "\u2581Ho\u00e0n": 2259,
  "\u01b0\u1ee1i": 2260,
  "\u8f7b\u8f7b": 2261,
  "\u7684\u65f6\u95f4": 2262,
  "\u2581L\u00e2u": 2263,
  "\u4e00\u7247": 2264,
  "\u2581m\u1eebng": 2265,
  "\u2581Th\u00e2n": 2266,
  "\u679c\u7136": 2267,
  "\u2581ph\u1ed1": 2268,
  "\u2581nh\u1eafm": 2269,
  "\u4e00\u7b11": 2270,
  "\u2581vung": 2271,
  "\u2581V\u1ef1c": 2272,
  "\u2581t\u1eafc": 2273,
  "\u627e\u5230": 2274,
  "\u2581h\u1eafc": 2275,
  "\u2581ki\u1ec7n": 2276,
  "\u4e00\u8def": 2277,
  "\u2581Th\u00fa": 2278,
  "\u2581x\u01b0\u01a1ng": 2279,
  "\u2581N\u1eef": 2280,
  "\u4e8c\u5341": 2281,
  "\u2581ghi": 2282,
  "\u2581\u00c1nh": 2283,
  "\u4e8e\u662f": 2284,
  "\u5b8b\u4e9a": 2285,
  "\u2581t\u00fa": 2286,
  "\u2581th\u1ec9nh": 2287,
  "\u4e86\u4e2a": 2288,
  "\u5f7b\u5e95": 2289,
  "\u2581xin": 2290,
  "\u4eb2\u81ea": 2291,
  "\u2581t\u1ed1n": 2292,
  "\u6e10\u6e10": 2293,
  "\u2581Hi": 2294,
  "\u2581hy": 2295,
  "\u2581\u00e1c": 2296,
  "\u00f3m": 2297,
  "\u2581Th\u1ea5y": 2298,
  "\u9ad8\u624b": 2299,
  "\u2581\u0110\u1ed9ng": 2300,
  "\u4e5f\u5c31": 2301,
  "\u2581d\u1eb7m": 2302,
  "\u1ea9ng": 2303,
  "N\u1ebfu": 2304,
  "\u2581C\u1ef1c": 2305,
  "\u2581t\u00e1i": 2306,
  "\u2581chia": 2307,
  "\u5728\u4ed6": 2308,
  "\u2581ngh\u1ecb": 2309,
  "\u6050\u6016": 2310,
  "\u2581c\u00fai": 2311,
  "\u96be\u9053": 2312,
  "\u4e4b\u65f6": 2313,
  "\u2581tho\u00e1ng": 2314,
  "er": 2315,
  "\u89c1\u5230": 2316,
  "\u2581Tuy\u1ebft": 2317,
  "\u2581h\u1ea5p": 2318,
  "\u2581phi\u1ec1n": 2319,
  "\u2581m\u1ea1o": 2320,
  "\u4e3a\u4f55": 2321,
  "\u81ea\u8eab": 2322,
  "\u2581Trung": 2323,
  "\u2581t\u1ed9i": 2324,
  "\u65b9\u5411": 2325,
  "\u8054\u90a6": 2326,
  "\u91cd\u65b0": 2327,
  "\u2581g\u00e3": 2328,
  "\u2581Ph\u1eadt": 2329,
  "\u2581B\u1ea5t": 2330,
  "\u5468\u56f4": 2331,
  "\u5bb6\u7684": 2332,
  "\u2581h\u00e0o": 2333,
  "\u7b11\u9053": 2334,
  "\u2581n\u1ed7i": 2335,
  "\u2581Hoang": 2336,
  "\u2581bu\u1ed9c": 2337,
  "\u2581l\u1ecbch": 2338,
  "\u2581d\u00e0y": 2339,
  "\u4e00\u65e6": 2340,
  "\u4e8c\u4eba": 2341,
  "\u53e6\u5916": 2342,
  "\u80fd\u529b": 2343,
  "\u2581x\u00e9t": 2344,
  "\u8fd8\u80fd": 2345,
  "\u2581H\u1ed3i": 2346,
  "\u5dc5\u5cf0": 2347,
  "\u2581\u0111\u00f3ng": 2348,
  "\u2581c\u00e1": 2349,
  "\u4e0d\u597d": 2350,
  "\u2581ng\u1ea9ng": 2351,
  "\u2581m\u1eddi": 2352,
  "\u2581c\u01b0\u1ee1ng": 2353,
  "\u2581tr\u01b0\u1ee3ng": 2354,
  "\u2581th\u1ea3m": 2355,
  "\u5982\u540c": 2356,
  "\u7684\u4e8b": 2357,
  "\u5e73\u9759": 2358,
  "\u2581nhi\u1ec7t": 2359,
  "\u52bf\u529b": 2360,
  "\u521a\u521a": 2361,
  "\u2581h\u1ed5": 2362,
  "\u2581tr\u00f9ng": 2363,
  "\u2581s\u01b0\u01a1ng": 2364,
  "\u9009\u62e9": 2365,
  "\u5f53\u521d": 2366,
  "\u2581Dung": 2367,
  "\u662f\u56e0\u4e3a": 2368,
  "\u795e\u8bc6": 2369,
  "\u56de\u6765": 2370,
  "\u2581L\u01b0\u01a1ng": 2371,
  "\u2581d\u1ecbch": 2372,
  "\u2581V\u00ec": 2373,
  "\u2581n\u00f3ng": 2374,
  "\u800c\u51fa": 2375,
  "\u2581\u00edch": 2376,
  "\u2581qu\u00e9t": 2377,
  "\u2581K\u00ednh": 2378,
  "\u53e5\u8bdd": 2379,
  "\u6709\u7740": 2380,
  "\u6781\u4e3a": 2381,
  "\u7075\u6c14": 2382,
  "\u8eab\u8fb9": 2383,
  "\u8fdb\u884c": 2384,
  "\u2581H\u1ecdc": 2385,
  "\u2581h\u1ecda": 2386,
  "\u2581th\u1ea3o": 2387,
  "\u2581tr\u00f4i": 2388,
  "\u5c31\u4f1a": 2389,
  "\u90a3\u8fb9": 2390,
  "\u2581n\u00e2ng": 2391,
  "\u6062\u590d": 2392,
  "\u2581\u1ea7m": 2393,
  "\u2581hao": 2394,
  "\u53cd\u5e94": 2395,
  "\u5996\u517d": 2396,
  "\u800c\u5df2": 2397,
  "\u2581k\u00eau": 2398,
  "\u2581\u0111\u1eadp": 2399,
  "\u2581tr\u00e0o": 2400,
  "\u2581c\u01a1n": 2401,
  "\u5f71\u54cd": 2402,
  "\u2581b\u00e9": 2403,
  "\u2581V\u1ecb": 2404,
  "\u2581m\u00e3n": 2405,
  "\u4e43\u662f": 2406,
  "\u773c\u4e2d": 2407,
  "\u2581s\u00f4ng": 2408,
  "\u5728\u5730": 2409,
  "\u2581thuy\u1ebft": 2410,
  "\u4e0d\u505c": 2411,
  "\u2581\u00e1n": 2412,
  "\u7684\u529b\u91cf": 2413,
  "\u2581ch\u1ed1c": 2414,
  "\u2581\u0110i\u1ec1u": 2415,
  "\u2581Ngh\u1ecb": 2416,
  "\u767e\u5e74": 2417,
  "\u2581Lu": 2418,
  "\u770b\u770b": 2419,
  "\u2581t\u00f3c": 2420,
  "\u5f20\u7fbd": 2421,
  "\u2581di\u1ec7u": 2422,
  "\u2581\u0110\u00ecnh": 2423,
  "\u5fcd\u4e0d\u4f4f": 2424,
  "\u2581Ng\u01b0\u01a1i": 2425,
  "\u2581s\u1ee3i": 2426,
  "\u89c1\u8fc7": 2427,
  "\u2581ng\u1ef1c": 2428,
  "\u2581m\u00f4i": 2429,
  "\u63d0\u5347": 2430,
  "\u1ea5c": 2431,
  "\u2581Ho\u1ea1": 2432,
  "\u76d8\u9f99": 2433,
  "\u2581th\u1ee7y": 2434,
  "\u4e0a\u4e86": 2435,
  "\u01b0\u1edbt": 2436,
  "\u5fc5\u987b": 2437,
  "\u2581\u00e1m": 2438,
  "\u2581Thi\u1ebfu": 2439,
  "\u2581Ch\u1eb3ng": 2440,
  "\u591a\u4e86": 2441,
  "\u2581nh\u00e1y": 2442,
  "\u65bd\u5c55": 2443,
  "\u2581Th\u1ef1c": 2444,
  "\u2581g\u1ea5p": 2445,
  "\u597d\u4e86": 2446,
  "\u5371\u9669": 2447,
  "\u1ec7t": 2448,
  "\u2581g\u00e1i": 2449,
  "\u2581Huy": 2450,
  "\u8fd8\u6ca1": 2451,
  "\u8fdc\u5904": 2452,
  "\u2581\u0110\u00fang": 2453,
  "\u2581B\u1edfi": 2454,
  "\u2581Th\u1ee7": 2455,
  "\u5b50\u7684": 2456,
  "\u5c06\u519b": 2457,
  "\u2581h\u00f9ng": 2458,
  "\u2581th\u0103m": 2459,
  "\u53d7\u5230": 2460,
  "\u7075\u77f3": 2461,
  "\u2581ca": 2462,
  "\u5e76\u4e14": 2463,
  "\u2581h\u1ee7y": 2464,
  "\u4e0a\u53bb": 2465,
  "\u4e0b\u4e00": 2466,
  "\u2581Giang": 2467,
  "\u4e0d\u89c1": 2468,
  "\u5c24\u5176": 2469,
  "\u624b\u6bb5": 2470,
  "\u6700\u7ec8": 2471,
  "\u2581c\u1ed1t": 2472,
  "\u5e1d\u56fd": 2473,
  "\u2581ng\u1ef1": 2474,
  "\u2581s\u00e1nh": 2475,
  "\u1eedi": 2476,
  "\u2581k\u1ef5": 2477,
  "\u2581v\u1ed7": 2478,
  "\u2581m\u00e3i": 2479,
  "\u5c31\u8981": 2480,
  "\u2581h\u00e3y": 2481,
  "\u5e0c\u671b": 2482,
  "\u2581Chung": 2483,
  "\u2581tri\u1ec7u": 2484,
  "\u5927\u9053": 2485,
  "\u2581r\u1ee1": 2486,
  "\u2581mai": 2487,
  "\u5143\u795e": 2488,
  "\u8fd8\u5728": 2489,
  "\u8fbe\u5230": 2490,
  "\u7684\u5730\u65b9": 2491,
  "\u2581nh\u1eabn": 2492,
  "\u90a3\u4e00": 2493,
  "\u2581t\u1ecda": 2494,
  "\u2581th\u0103ng": 2495,
  "\u1eedng": 2496,
  "\u2581kh\u0103n": 2497,
  "\u4e0d\u7528": 2498,
  "\u2581th\u1ea3n": 2499,
  "\u6709\u70b9": 2500,
  "\u2581s\u1ea3n": 2501,
  "\u81f3\u5c11": 2502,
  "\u2581cu\u1ed3n": 2503,
  "\u2581ng\u00e3": 2504,
  "\u2581im": 2505,
  "\u2581b\u00e0y": 2506,
  "\u2581r\u1eebng": 2507,
  "\u51fa\u73b0\u5728": 2508,
  "\u2581bi": 2509,
  "\u2581b\u1ea9m": 2510,
  "\u9ed1\u8272": 2511,
  "\u5389\u5bb3": 2512,
  "\u90fd\u4f1a": 2513,
  "\u2581M\u1ee5c": 2514,
  "\u2581h\u1ea1ng": 2515,
  "\u4e00\u5207": 2516,
  "\u2581T\u1ef1": 2517,
  "\u7684\u5730": 2518,
  "\u2581lan": 2519,
  "\u2581V\u1eeba": 2520,
  "\u65e9\u5c31": 2521,
  "\u2581thu\u1ed1c": 2522,
  "\u7684\u4fee\u58eb": 2523,
  "\u2581l\u1eabn": 2524,
  "\u2581th\u01b0\u1edfng": 2525,
  "\u2581X\u00edch": 2526,
  "\u2581l\u00f9ng": 2527,
  "\u5bb6\u65cf": 2528,
  "\u662f\u5728": 2529,
  "\u2581v\u00e1ch": 2530,
  "\u2581ph\u1ea5t": 2531,
  "\u2581c\u1ea5m": 2532,
  "\u4e0b\u4e86": 2533,
  "\u2581kh\u00e1i": 2534,
  "\u51fa\u7684": 2535,
  "\u2581\u0111\u1ee9t": 2536,
  "\u2581th\u00e1nh": 2537,
  "\u2581tr\u00fang": 2538,
  "\u2581nu\u1ed1t": 2539,
  "\u56e0\u6b64": 2540,
  "\u968f\u540e": 2541,
  "\u2581c\u1edd": 2542,
  "\u5728\u8fd9\u91cc": 2543,
  "\u4e66\u9662": 2544,
  "\u2581\u0111a": 2545,
  "\u2581b\u1ea1o": 2546,
  "\u2581l\u0169": 2547,
  "\u76f8\u4fe1": 2548,
  "\u2581d\u00e2ng": 2549,
  "\u2581h\u1eadn": 2550,
  "\u5f53\u65f6": 2551,
  "\u8bf4\u7684": 2552,
  "\u2581\u0111\u1ea5y": 2553,
  "\u2581tho\u1ea3ng": 2554,
  "\u5b97\u4e3b": 2555,
  "\u6709\u6240": 2556,
  "C\u00f3": 2557,
  "\u5c71\u6d77": 2558,
  "\u63a7\u5236": 2559,
  "\u2581Li\u1ec5u": 2560,
  "\u5c11\u5e74": 2561,
  "\u4e0d\u518d": 2562,
  "\u7684\u786e": 2563,
  "\u2581h\u1ed7n": 2564,
  "\u524d\u8f88": 2565,
  "\u90a3\u91cc": 2566,
  "\u2581\u00f4m": 2567,
  "\u7b97\u662f": 2568,
  "\u2581m\u1edd": 2569,
  "\u2581gi\u1eadt": 2570,
  "\u2581b\u00f9ng": 2571,
  "\u1ef1ng": 2572,
  "\u2581r\u0103ng": 2573,
  "\u2581C\u1ed1c": 2574,
  "\u2581nhu": 2575,
  "\u6cd5\u5668": 2576,
  "\u63a5\u7740": 2577,
  "\u4e4b\u4e00": 2578,
  "\u2581chuy\u00ean": 2579,
  "\u2581tr\u00f2n": 2580,
  "\u5404\u79cd": 2581,
  "\u90fd\u6ca1": 2582,
  "\u1ecbnh": 2583,
  "\u2581Di\u1ec7u": 2584,
  "\u2581ch\u1eb7n": 2585,
  "\u2581t\u1ec7": 2586,
  "\u5c31\u50cf": 2587,
  "\u2581V\u00f5": 2588,
  "\u2581l\u1ed7i": 2589,
  "\u6a21\u6837": 2590,
  "\u2581d\u1ed9i": 2591,
  "\u2581d\u01b0\u01a1ng": 2592,
  "\u4f4d\u7f6e": 2593,
  "\u2581m\u1ef9": 2594,
  "\u2581Hi\u1ec7n": 2595,
  "\u2581huy\u1ec1n": 2596,
  "\u2581b\u1ed5": 2597,
  "\u58f0\u9053": 2598,
  "\u660e\u663e": 2599,
  "\u2581d\u1ea1ng": 2600,
  "\u6ce8\u610f": 2601,
  "\u8bf4\u4e0d": 2602,
  "\u2581c\u1eaft": 2603,
  "\u00e8m": 2604,
  "\u2581\u5979": 2605,
  "\u2581Nhai": 2606,
  "\u2581\u0111\u1ecdc": 2607,
  "\u662f\u4ec0\u4e48": 2608,
  "\u2581B\u1ed9": 2609,
  "\u2581th\u00ed": 2610,
  "\u4e09\u4e2a": 2611,
  "\u2581T\u1ee9": 2612,
  "\u8fd9\u6837\u7684": 2613,
  "\u2581l\u00f4ng": 2614,
  "\u2581v\u1eefng": 2615,
  "\u4ee5\u524d": 2616,
  "\u76ef\u7740": 2617,
  "\u2581c\u00e2n": 2618,
  "\u559c\u6b22": 2619,
  "\u2581Ph\u1ee5c": 2620,
  "\u5b83\u4eec": 2621,
  "\u2581v\u1ebd": 2622,
  "\u2581d\u00e2y": 2623,
  "\u4e0d\u7531": 2624,
  "\u4e0d\u60f3": 2625,
  "\u4e0d\u5982": 2626,
  "\u542c\u8bf4": 2627,
  "\u5341\u5e74": 2628,
  "\u2581To": 2629,
  "\u7684\u5fc3": 2630,
  "\u2581tho\u1ea1i": 2631,
  "\u2581s\u1ee9": 2632,
  "\u2581\u0110\u00f4": 2633,
  "\u2581s\u1eeda": 2634,
  "\u8fdb\u53bb": 2635,
  "\u2581d\u1ea1y": 2636,
  "\u53cd\u800c": 2637,
  "\u2581n\u1ed9": 2638,
  "\u2581Gi\u1ea3": 2639,
  "\u2581L\u1ea7n": 2640,
  "\u2581kh\u1ed1i": 2641,
  "\u54cd\u8d77": 2642,
  "\u89e3\u91ca": 2643,
  "\u2581s\u1ed5": 2644,
  "\u4e86\u51e0": 2645,
  "\u5219\u662f": 2646,
  "\u8ba9\u4eba": 2647,
  "\u2581nguy\u1ec7n": 2648,
  "\u62c5\u5fc3": 2649,
  "\u2581d\u1ee5": 2650,
  "\u2581Ch\u1ee7": 2651,
  "\u6240\u8c13": 2652,
  "\u2581ngh\u1ec9": 2653,
  "\u2581v\u00e2n": 2654,
  "\u638c\u95e8": 2655,
  "\u8fd9\u822c": 2656,
  "\u2581Vu": 2657,
  "\u2581b\u1edd": 2658,
  "\u62e5\u6709": 2659,
  "\u2581c\u00e1o": 2660,
  "\u2581\u0111\u1ee9a": 2661,
  "\u60f3\u7740": 2662,
  "\u5973\u5b50": 2663,
  "\u2581\u0110\u1ec9nh": 2664,
  "\u2581thua": 2665,
  "\u2581x\u00e9": 2666,
  "\u2581m\u00ea": 2667,
  "\u4e4b\u5730": 2668,
  "\u2581h\u00fat": 2669,
  "\u2581m\u00e1i": 2670,
  "\u2581nh\u00e0ng": 2671,
  "\u5927\u9635": 2672,
  "\u2581kh\u1ee7ng": 2673,
  "\u4e00\u9635": 2674,
  "\u662f\u4e2a": 2675,
  "\u671d\u7740": 2676,
  "\u2581\u1ee9c": 2677,
  "\u2581mu\u1ed9i": 2678,
  "\u5165\u4e86": 2679,
  "\u4e86\u4e0b\u6765": 2680,
  "\u2581Y\u00ean": 2681,
  "\u2581hi\u1ebfm": 2682,
  "\u90fd\u6709": 2683,
  "\u2581C\u1ed1": 2684,
  "\u2581th\u1ea7y": 2685,
  "\u2581tr\u00e0": 2686,
  "\u2581t\u00fac": 2687,
  "\u2581qu\u00e1n": 2688,
  "\u2581b\u00e1i": 2689,
  "\u2581n\u00e9m": 2690,
  "\u70b9\u4e86": 2691,
  "\u2581M\u1ed9": 2692,
  "\u7684\u5251": 2693,
  "\u2581Mai": 2694,
  "\u2581nghi\u00ean": 2695,
  "\u2581Chi\u1ebfn": 2696,
  "\u4e86\u4e00\u58f0": 2697,
  "\u01b0\u1edbp": 2698,
  "uy\u1ebfn": 2699,
  "\u2581b\u00e0o": 2700,
  "\u4e24\u4f4d": 2701,
  "\u4e09\u4eba": 2702,
  "\u90fd\u5728": 2703,
  "\u9732\u51fa": 2704,
  "\u613f\u610f": 2705,
  "\u2581gi\u00e1ng": 2706,
  "\u5f00\u4e86": 2707,
  "\u5fc3\u91cc": 2708,
  "\u00fdt": 2709,
  "\u1eaby": 2710,
  "\u6d1e\u5e9c": 2711,
  "\u2581\u4e0d\u8fc7": 2712,
  "\u2581l\u01b0\u01a1ng": 2713,
  "\u2581du": 2714,
  "\u5149\u8292": 2715,
  "\u2581ho\u1ea1t": 2716,
  "\u539f\u6765": 2717,
  "\u0110\u00e2y": 2718,
  "\u539f\u56e0": 2719,
  "\u2581c\u1ecf": 2720,
  "\u2581gi\u1ea5y": 2721,
  "\u672c\u6765": 2722,
  "\u6563\u4fee": 2723,
  "\u2581phun": 2724,
  "\u2581nghi\u1ec7p": 2725,
  "\u4ed6\u4eec\u7684": 2726,
  "\u2581n\u1ea3y": 2727,
  "\u7cbe\u795e": 2728,
  "\u4e00\u79cd": 2729,
  "\u52a0\u4e0a": 2730,
  "\u2581m\u00e3": 2731,
  "\u2581Do": 2732,
  "\u800c\u6765": 2733,
  "\u1eb5n": 2734,
  "\u6253\u7b97": 2735,
  "\u2581T\u00ecnh": 2736,
  "\u4e5f\u4f1a": 2737,
  "\u2581h\u00f4n": 2738,
  "\u82cd\u4e91": 2739,
  "\u2581kh\u1edfi": 2740,
  "\u5c06\u5176": 2741,
  "\u522b\u4eba": 2742,
  "\u5927\u6982": 2743,
  "\u2581\u0111\u00f3n": 2744,
  "\u2581qu\u1ea7n": 2745,
  "\u4f7f\u7528": 2746,
  "\u2581g\u00f3c": 2747,
  "\u2581t\u00edn": 2748,
  "\u4e86\u51fa\u6765": 2749,
  "\u2581ch\u1ec9nh": 2750,
  "\u671b\u7740": 2751,
  "\u8fd9\u4ef6": 2752,
  "\u4e0d\u5728": 2753,
  "\u2581gi\u1ea3m": 2754,
  "\u2581th\u1eadp": 2755,
  "\u672c\u8eab": 2756,
  "\u2581B\u0103ng": 2757,
  "\u53ef\u60dc": 2758,
  "\u8981\u662f": 2759,
  "\u2581\u01b0u": 2760,
  "\u2581c\u1ee5": 2761,
  "\u2581g\u1ed1c": 2762,
  "\u2581D\u01b0\u1edbi": 2763,
  "\u522b\u7684": 2764,
  "\u2581khu\u00f4n": 2765,
  "\u6ee1\u662f": 2766,
  "\u843d\u5728": 2767,
  "\u2581Thu\u1eadt": 2768,
  "\u663e\u5f97": 2769,
  "\u2581B\u1ed1i": 2770,
  "\u2581g\u00e0o": 2771,
  "\u2581b\u1ee5i": 2772,
  "\u2581Thu\u1ea7n": 2773,
  "\u795e\u60c5": 2774,
  "\u4e1d\u6beb": 2775,
  "\u591a\u7684": 2776,
  "\u8eab\u4efd": 2777,
  "\u5f3a\u5927\u7684": 2778,
  "\u2581qu\u00e1t": 2779,
  "\u2581tr\u1ed1ng": 2780,
  "\u2581b\u00e9n": 2781,
  "\u2581Qu\u1ea3": 2782,
  "\u2581duy\u00ean": 2783,
  "\u5929\u7684": 2784,
  "\u53c8\u662f": 2785,
  "\u2581m\u1ed9": 2786,
  "V\u1eady": 2787,
  "\u5929\u4e0b": 2788,
  "\u2581T\u1ea1i": 2789,
  "\u2581Ng\u1ee5y": 2790,
  "\u2581K\u1ef5": 2791,
  "\u2581c\u1eed": 2792,
  "\u6709\u7684": 2793,
  "\u5a01\u529b": 2794,
  "\u6d6e\u73b0": 2795,
  "\u53cc\u624b": 2796,
  "\u6837\u5b50": 2797,
  "\u2581cha": 2798,
  "\u2581ch\u00e2u": 2799,
  "\u00e8o": 2800,
  "\u6b7b\u4e86": 2801,
  "\u8eab\u5f71": 2802,
  "\u6ca1\u6709\u4efb\u4f55": 2803,
  "\u2581M\u00e3": 2804,
  "\u70bc\u6c14": 2805,
  "\u5750\u5728": 2806,
  "\u2581C\u0169ng": 2807,
  "\u2581b\u1eadt": 2808,
  "\u5b97\u7684": 2809,
  "\u7b11\u7740": 2810,
  "\u5426\u5219": 2811,
  "\u662f\u4e0d\u662f": 2812,
  "\u2581th\u00e9t": 2813,
  "\u2581doanh": 2814,
  "\u2581Lam": 2815,
  "\u2581c\u01b0\u1edbp": 2816,
  "\u2581b\u1eadn": 2817,
  "\u2581h\u01b0\u01a1ng": 2818,
  "\u9ebb\u70e6": 2819,
  "\u8fd9\u8fb9": 2820,
  "\u2581ph\u00e1ch": 2821,
  "\u2581Ph\u01b0\u1ee3ng": 2822,
  "\u56de\u53bb": 2823,
  "\u2581Gia": 2824,
  "\u4e4b\u6240\u4ee5": 2825,
  "\u2581th\u00f4n": 2826,
  "\u2581vong": 2827,
  "\u2581h\u00e0i": 2828,
  "\u2581ch\u00ecm": 2829,
  "\u2581T\u1ed5": 2830,
  "\u2581t\u00fai": 2831,
  "\u2581Tri\u1ec1u": 2832,
  "',": 2833,
  "\u6218\u573a": 2834,
  "\u2581Ngo": 2835,
  "\u5bf9\u624b": 2836,
  "\u6162\u6162": 2837,
  "\u2581h\u00f4": 2838,
  "\u2581m\u00e3nh": 2839,
  "\u2581\u201d": 2840,
  "\u8bf8\u591a": 2841,
  "\u2581\u0111\u00e0o": 2842,
  "\u540d\u5b57": 2843,
  "\u2581ha": 2844,
  "\u5929\u9053": 2845,
  "\u2581ph\u1ea5n": 2846,
  "\u2581Huy\u1ec5n": 2847,
  "\u7709\u5934": 2848,
  "\u4f20\u6765": 2849,
  "\u2581m\u00f4": 2850,
  "\u8868\u60c5": 2851,
  "\u4f46\u4ed6": 2852,
  "\u514b\u83b1": 2853,
  "\u4eca\u65e5": 2854,
  "\u2581h\u1ed3ng": 2855,
  "\u5fc5\u7136": 2856,
  "\u2581xu\u00e2n": 2857,
  "\u2581lo\u1ea1t": 2858,
  "\u2581b\u1ea1ch": 2859,
  "\u4eba\u7c7b": 2860,
  "\u2581n\u1ee5": 2861,
  "\u2581Ph\u00e1": 2862,
  "\u2581trai": 2863,
  "\u72b6\u6001": 2864,
  "\u65b9\u9762": 2865,
  "\u2581Lang": 2866,
  "\u2581qu\u00ean": 2867,
  "\u56de\u7b54": 2868,
  "\u5de8\u5927\u7684": 2869,
  "\u2581chung": 2870,
  "\u2581Thi": 2871,
  "\u4e00\u4eba": 2872,
  "\u2581g\u1eafng": 2873,
  "\u2581\u0110\u00e0o": 2874,
  "\u2581bu\u00f4ng": 2875,
  "\u2581Lo": 2876,
  "\u771f\u541b": 2877,
  "\u4f20\u627f": 2878,
  "\u2581Gi\u00e0": 2879,
  "\u56db\u5468": 2880,
  "\u2581Li\u1ec7t": 2881,
  "\u6548\u679c": 2882,
  "\u2581M\u1eabu": 2883,
  "\u2581h\u1ea7u": 2884,
  "\u4e16\u95f4": 2885,
  "\u6df1\u5904": 2886,
  "\u8001\u7956": 2887,
  "\u2581D\u01b0\u1ee3c": 2888,
  "\u65b9\u7684": 2889,
  "\u2581H\u1ed5": 2890,
  "\u2581s\u1eb5n": 2891,
  "\u2581\u0110\u1ebfn": 2892,
  "\u8ba4\u4e3a": 2893,
  "\u9690\u9690": 2894,
  "\u2581\u0111\u00f2n": 2895,
  "\u4e0d\u7ba1": 2896,
  "ar": 2897,
  "\u773c\u795e": 2898,
  "\u514b\u83b1\u6069": 2899,
  "\u4e5f\u80fd": 2900,
  "\u2581S\u00e1t": 2901,
  "\u3002\u300c": 2902,
  "\u2581m\u01b0u": 2903,
  "\u6210\u7684": 2904,
  "\u2581hi\u1ec3n": 2905,
  "\u6309\u7167": 2906,
  "\u2581b\u1eafc": 2907,
  "\u56de\u5230": 2908,
  "\u4e0d\u591a": 2909,
  "\u865a\u7a7a": 2910,
  "\u9762\u4e0a": 2911,
  "\u2581Tuy\u1ec1n": 2912,
  "\u6851\u6851": 2913,
  "\u800c\u53bb": 2914,
  "\u2581C\u01b0\u01a1ng": 2915,
  "\u4fee\u4ed9": 2916,
  "\u2581d\u1ed1c": 2917,
  "\u2581x\u00e2y": 2918,
  "\u4e86\u53e3\u6c14": 2919,
  "\u2581ch\u1eafp": 2920,
  "\u7684\u60c5\u51b5": 2921,
  "\u2581v\u1ee5n": 2922,
  "\u4ed4\u7ec6": 2923,
  "\u540e\u6765": 2924,
  "lein": 2925,
  "\u2581g\u1ed7": 2926,
  "\u2581ch\u00e9p": 2927,
  "\u2581long": 2928,
  "\u2581ph\u00fat": 2929,
  "\u2581h\u1ee9ng": 2930,
  "\u2581ph\u1ed1i": 2931,
  "\".": 2932,
  "\u2581Klein": 2933,
  "\u5c0f\u5fc3": 2934,
  "\u6240\u5728": 2935,
  "\u6de1\u6de1": 2936,
  "\u7591\u60d1": 2937,
  "\u2581v\u1eb7n": 2938,
  "\u5bdf\u89c9": 2939,
  "\u2581dao": 2940,
  "\u2581\u0111\u00e1y": 2941,
  "\u60c5\u7eea": 2942,
  "\u0110\u00fang": 2943,
  "\u2581l\u1eadt": 2944,
  "\u516c\u5b50": 2945,
  "\u2581\u0110\u1ed9c": 2946,
  "\u4e00\u6761": 2947,
  "\u8fd8\u771f": 2948,
  "\u2581th\u1ea3": 2949,
  "\u2581ngu\u1ed3n": 2950,
  "\u2581Vi\u1ec5n": 2951,
  "\u4ed6\u662f": 2952,
  "\u7537\u5b50": 2953,
  "\u2581T\u1ea5t": 2954,
  "\u2581d\u1ecdc": 2955,
  "............": 2956,
  "\u2581mong": 2957,
  "\u8f6c\u8eab": 2958,
  "\u2581kh\u1ea3o": 2959,
  "\u5c31\u8fde": 2960,
  "\u2581tr\u1ea7n": 2961,
  "\u4e0a\u4e00": 2962,
  "\u70b9\u4e86\u70b9\u5934": 2963,
  "\u2581l\u00f9i": 2964,
  "\u6700\u8fd1": 2965,
  "\u72b9\u8c6b": 2966,
  "\u2581T\u00f9ng": 2967,
  "\u7ecf\u8fc7": 2968,
  "\u2581Kho": 2969,
  "\u2581c\u1eadn": 2970,
  "\u2581T\u01b0\u1edbng": 2971,
  "\u5927\u5e08": 2972,
  "\u7f62\u4e86": 2973,
  "\u2581su\u00fdt": 2974,
  "\u5c0f\u7684": 2975,
  "\u2581k\u1ecbch": 2976,
  "\u2581\u5982\u679c": 2977,
  "\u795e\u6bbf": 2978,
  "\u81ea\u5bb6": 2979,
  "\u2581r\u1ea9y": 2980,
  "\u2581H\u00e0o": 2981,
  "\u4e4b\u8272": 2982,
  "\u3011,": 2983,
  "\u51b3\u5b9a": 2984,
  "\u6b63\u5e38": 2985,
  "\u95e8\u7684": 2986,
  "\u2581gi\u00e0nh": 2987,
  "\u5f88\u96be": 2988,
  "\u6740\u4e86": 2989,
  "\u2581Ph\u00ed": 2990,
  "\u1ed3m": 2991,
  "\u2581S\u1eafc": 2992,
  "\u4e0d\u7136": 2993,
  "\u2581gi\u00e1m": 2994,
  "\u4e0d\u51fa": 2995,
  "\u2581\u0110\u1ed5ng": 2996,
  "\u7eb7\u7eb7": 2997,
  "\u2581ty": 2998,
  "\u2581\u58a8\u753b": 2999,
  "\u2581B\u00ean": 3000,
  "\u52a8\u4f5c": 3001,
  "\u771f\u6b63\u7684": 3002,
  "\u7f57\u5929": 3003,
  "\u2581K\u1ebft": 3004,
  "\u7b11\u4e86": 3005,
  "\u663e\u7136": 3006,
  "\u2581b\u00e1t": 3007,
  "\u2581khi\u1ec3n": 3008,
  "\u5b81\u6bc5": 3009,
  "\u2581kh\u00f3i": 3010,
  "ci": 3011,
  "\u1ee5p": 3012,
  "\u822c\u7684": 3013,
  "\u2581M\u1ea5y": 3014,
  "\u2581tr\u1eef": 3015,
  "\u2581tr\u00fac": 3016,
  "\u1ee3n": 3017,
  "\u76f4\u5230": 3018,
  "\u2581bi\u00ean": 3019,
  "\u53d8\u6210": 3020,
  "\u2581Ngh\u0129": 3021,
  "\u90a3\u6837": 3022,
  "\u4e86\u4e00\u773c": 3023,
  "\u2581b\u1ee5ng": 3024,
  "\u771f\u6c14": 3025,
  "\u4e5f\u4e0d\u662f": 3026,
  "\u2581kh\u00e1ng": 3027,
  "\u2581l\u00e2m": 3028,
  "\u2581T\u01b0\u01a1ng": 3029,
  "\u2581s\u1eaft": 3030,
  "\u53ea\u4e0d\u8fc7": 3031,
  "\u2581M\u1ecdi": 3032,
  "\u2581tr\u1ee5": 3033,
  "\u4e0d\u4e0a": 3034,
  "\u2581nu": 3035,
  "\u592a\u591a": 3036,
  "\u90fd\u88ab": 3037,
  "\u2581tuy\u1ebfn": 3038,
  "\u8111\u6d77": 3039,
  "\u8fd9\u4e48\u591a": 3040,
  "\u00f2i": 3041,
  "\u5b69\u5b50": 3042,
  "Nh\u01b0ng": 3043,
  "\u2581ph\u00e9p": 3044,
  "\u4ec5\u4ec5": 3045,
  "\u65b9\u6cd5": 3046,
  "\u2581l\u1ed1i": 3047,
  "\u2581b\u1ec7": 3048,
  "\u2581gi\u01a1": 3049,
  "\u2581t\u1ecbch": 3050,
  "\u2581\u01b0\u1edbc": 3051,
  "\u4e5f\u8981": 3052,
  "\u5b89\u9759": 3053,
  "\u2581ch\u01b0\u01a1ng": 3054,
  "\u2581lu\u00e2n": 3055,
  "\u2581bu\u1ed5i": 3056,
  "\u2581\u1ea2": 3057,
  "\u2581l\u1ea5p": 3058,
  "\u2581l\u1ed7": 3059,
  "\u719f\u6089": 3060,
  "\u4e94\u884c": 3061,
  "\u9047\u5230": 3062,
  "\u2581Di": 3063,
  "\u2581n\u00e9": 3064,
  "\u2581ho\u1ea3ng": 3065,
  "\u2581Ng\u01b0": 3066,
  "\u00faa": 3067,
  "\u8d1d\u8fe6": 3068,
  "\u53ea\u89c1": 3069,
  "\u5e08\u59d0": 3070,
  "\u2581h\u1edf": 3071,
  "\u4ee3\u8868": 3072,
  "\u65b9\u9752": 3073,
  "\u2581l\u00e9n": 3074,
  "\u9707\u60ca": 3075,
  "\u8bf4\u4e86": 3076,
  "\u4fee\u771f\u8005": 3077,
  "\u4ed6\u5728": 3078,
  "\u592a\u865a": 3079,
  "\u2581l\u1ef1a": 3080,
  "\u2581Thi\u1ebft": 3081,
  "\u90a3\u662f": 3082,
  "......\u300d": 3083,
  "\u01b0\u01a1n": 3084,
  "\u2581C\u00e2n": 3085,
  "\u2581N\u01b0\u01a1ng": 3086,
  "\u4e0d\u53ca": 3087,
  "\u7d2b\u5e9c": 3088,
  "\u706b\u7130": 3089,
  "\u56fd\u6559": 3090,
  "\u2581Th\u1eddi": 3091,
  "\u2581\u0111\u1ed1t": 3092,
  "\u8fdb\u4e86": 3093,
  "\u7279\u6b8a": 3094,
  "\u6765\u81ea": 3095,
  "\u88ab\u4eba": 3096,
  "\u90fd\u8981": 3097,
  "\u7684\u4fee\u4e3a": 3098,
  "\u2581nh\u00f3m": 3099,
  "\u2581x\u00e1m": 3100,
  "\u4e00\u80a1": 3101,
  "\u2581\u0111\u1ea3m": 3102,
  "\u00f5i": 3103,
  "\u4e5f\u4e0d\u4f1a": 3104,
  "\u9c9c\u8840": 3105,
  "\u5bf9\u7740": 3106,
  "\u8111\u888b": 3107,
  "\u5c31\u4e0d": 3108,
  "\u2581va": 3109,
  "\u4e5f\u5c31\u662f": 3110,
  "\u4e3b\u4eba": 3111,
  "\u4e00\u52a8": 3112,
  "\u5316\u4f5c": 3113,
  "\u2581g\u1ea7m": 3114,
  "\u57ce\u7684": 3115,
  "\u9762\u8272": 3116,
  "\u4e0a\u9762": 3117,
  "\u5173\u952e": 3118,
  "\u8eab\u4e0a\u7684": 3119,
  "\u2581Gi\u00e1p": 3120,
  "\u5929\u8d4b": 3121,
  "\u9b54\u6cd5": 3122,
  "\u8ddf\u7740": 3123,
  "\u8fc7\u7a0b": 3124,
  "\u540e\u671f": 3125,
  "\u540e\u7684": 3126,
  "\u90fd\u80fd": 3127,
  "\u2581Du\u1ec7": 3128,
  "\u2581h\u1ea1ch": 3129,
  "\u5df2\u7136": 3130,
  "\u7a76\u7adf": 3131,
  "\u2581H\u1ee3p": 3132,
  "\u2581Di\u1ec7t": 3133,
  "\u751f\u6b7b": 3134,
  "\u8fdb\u6765": 3135,
  "\u5e76\u975e": 3136,
  "\u8d70\u5230": 3137,
  "\u2581\u0111\u1ee3t": 3138,
  "\u2581Vi\u1ec7t": 3139,
  "\u7236\u4eb2": 3140,
  "\u7814\u7a76": 3141,
  "\u6beb\u65e0": 3142,
  "\u753b\u9762": 3143,
  "\u6447\u4e86": 3144,
  "\u7ecf\u5386": 3145,
  "\u5343\u5e74": 3146,
  "\u2581ki\u00eau": 3147,
  "\u2581[": 3148,
  "\u2581ch\u00faa": 3149,
  "\u2581l\u00e3nh": 3150,
  "\u6cd5\u672f": 3151,
  "\u4e00\u4e2a\u4eba": 3152,
  "\u2581N\u0103m": 3153,
  "\u7075\u529b": 3154,
  "\u2581b\u00f9": 3155,
  "\u5316\u4e3a": 3156,
  "!\u201c": 3157,
  "\u4e4b\u4eba": 3158,
  "\u2581Kh\u00e1nh": 3159,
  "\u4e00\u540d": 3160,
  "\u8db3\u591f": 3161,
  "\u60f3\u6cd5": 3162,
  "\u2581kh\u00f4": 3163,
  "\u2581C\u00e1i": 3164,
  "\u2581Quy\u1ebft": 3165,
  "\u2581tr\u01b0\u1edbng": 3166,
  "\u9644\u8fd1": 3167,
  "\u2581m\u00f2": 3168,
  "\u7559\u4e0b": 3169,
  "\u2581\u0111\u1ed9n": 3170,
  "\u5e94\u8be5\u662f": 3171,
  "\u2581L\u1eddi": 3172,
  "\u2581manh": 3173,
  "\u2581nh\u00e0n": 3174,
  "\u2581ch\u01a1i": 3175,
  "\u771f\u4ed9": 3176,
  "\u90a3\u79cd": 3177,
  "\u2581v\u01b0\u01a1n": 3178,
  "\u00f3p": 3179,
  "\u795e\u8272": 3180,
  "\u2581V\u1ea5n": 3181,
  "\u2581b\u1eebng": 3182,
  "\u2581Phu": 3183,
  "\u8fd0\u8f6c": 3184,
  "\u2581L\u1ea1i": 3185,
  "\u544a\u8bc9": 3186,
  "\u89e3\u51b3": 3187,
  "\u8d77\u8eab": 3188,
  "\u9ed1\u6697": 3189,
  "\u00f5m": 3190,
  "\u2581phen": 3191,
  "\u2581ly": 3192,
  "\u8fd9\u4e00\u6b21": 3193,
  "\u2581S\u01b0\u01a1ng": 3194,
  "\u2581sa": 3195,
  "\u5929\u9b54": 3196,
  "\u2581T\u1ecbch": 3197,
  "\u2581Y\u1ebfn": 3198,
  "\u2581qu\u1ef3": 3199,
  "\u4e4b\u4e8b": 3200,
  "\u7ed3\u675f": 3201,
  "\u8fd9\u5bb6\u4f19": 3202,
  "\u5168\u90fd": 3203,
  "\u6218\u4e89": 3204,
  "\u2581n\u00e9n": 3205,
  "\u2581t\u1ea3ng": 3206,
  "\u2581l\u00e0n": 3207,
  "\u2581b\u1ec7nh": 3208,
  "\u4e00\u4e1d": 3209,
  "\u5185\u7684": 3210,
  "\u7384\u9ec4\u754c": 3211,
  "\u2581m\u00e1y": 3212,
  "?\u201c": 3213,
  "\u4e2d\u5e74": 3214,
  "\u65e9\u5df2": 3215,
  "\u6b64\u4eba": 3216,
  "\u2581s\u1eefng": 3217,
  "\u91cd\u7684": 3218,
  "\u2581th\u1ed1t": 3219,
  "\u2581rung": 3220,
  "\u2581Nh\u01b0\u1ee3c": 3221,
  "\u2581B\u1ea3n": 3222,
  "\u2581T\u1ee5": 3223,
  "\u2581\u0111\u00f4": 3224,
  "\u2581Th\u1ee9": 3225,
  "\u2581S\u1ef1": 3226,
  "\u2581b\u1ec1": 3227,
  "\u6447\u4e86\u6447\u5934": 3228,
  "\u2581ph\u00e1n": 3229,
  "\u1edbn": 3230,
  "\u2581l\u1ea7u": 3231,
  "\u751f\u547d": 3232,
  "\u75af\u72c2": 3233,
  "\u751f\u7684": 3234,
  "\u2581l\u1ea9m": 3235,
  "\u540e\u9762": 3236,
  "\u5947\u602a": 3237,
  "\u9752\u5e74": 3238,
  "\u4e07\u4ed9": 3239,
  "\u52a8\u624b": 3240,
  "\u8def\u897f": 3241,
  "\u56de\u5934": 3242,
  "\u7ed9\u4e86": 3243,
  "\u957f\u7684": 3244,
  "\u2581ch\u00e1y": 3245,
  "\u9632\u5fa1": 3246,
  "\u2581o\u00e1n": 3247,
  "\u2581l\u01a1": 3248,
  "\u8def\u897f\u6069": 3249,
  "\u524d\u65b9": 3250,
  "\u5b9e\u9645": 3251,
  "\u7ed3\u4e39": 3252,
  "\u2581H\u1eefu": 3253,
  "\u610f\u5916": 3254,
  "\u8001\u4eba": 3255,
  "\u2581m\u00f9i": 3256,
  "\u2581\u0110o\u1ea1n": 3257,
  "\u4e4b\u5904": 3258,
  "\u65a4\u4e24": 3259,
  "\u8463\u9510": 3260,
  "\u2581x\u1ea5u": 3261,
  "\u2581\u0110\u1ea3o": 3262,
  "\u2581Cao": 3263,
  "\u2581l\u01b0\u1edbt": 3264,
  "\u1ecbt": 3265,
  "\u62ac\u5934": 3266,
  "\u2581ng\u1eadp": 3267,
  "\u795e\u9b42": 3268,
  "el": 3269,
  "\u7406\u89e3": 3270,
  "\u2581\u0110ao": 3271,
  "\u2581(": 3272,
  "\u5927\u9646": 3273,
  "\u4e00\u53ea": 3274,
  "\u6750\u6599": 3275,
  "\u2581r\u00e1ch": 3276,
  "\u2581O": 3277,
  "\u4e5f\u5728": 3278,
  "\u2581ng\u00f4i": 3279,
  "\u4e09\u5341\u516d": 3280,
  "\u770b\u5230\u4e86": 3281,
  "\u2581n\u1ee9t": 3282,
  "\u2581r\u1ed1i": 3283,
  "\u8bf4\u662f": 3284,
  "\u7b2c\u4e00\u6b21": 3285,
  "\u2581\u0111\u00e8n": 3286,
  "\u89c2\u5bdf": 3287,
  "\u2581b\u1ebf": 3288,
  "\u2581T\u00ean": 3289,
  "\u2581g\u00e1nh": 3290,
  "\u8427\u708e": 3291,
  "\u2581ng\u1ee5": 3292,
  "\u7b11\u5bb9": 3293,
  "\u8fc5\u901f": 3294,
  "\u2581s\u1edd": 3295,
  "\u57fa\u672c": 3296,
  "\u638c\u63e1": 3297,
  "\u5f97\u4e86": 3298,
  "\u65b9\u624d": 3299,
  "\u2581L\u00e0": 3300,
  "cien": 3301,
  "\u2581Tr\u00ecnh": 3302,
  "\u8fc7\u7684": 3303,
  "\u2581m\u00f9a": 3304,
  "\u2581v\u1ecdt": 3305,
  "\u2581bu\u1ed3n": 3306,
  "\u786e\u5b9a": 3307,
  "\u8089\u8eab": 3308,
  "\u2581C\u1ef1": 3309,
  "\u5434\u65a4\u4e24": 3310,
  "\u2581\u0111\u1eadm": 3311,
  "\u2581C\u00f4": 3312,
  "\u2581B\u00edch": 3313,
  "\u5929\u795e": 3314,
  "\u2581c\u1ed7": 3315,
  "\u4e0d\u5bf9": 3316,
  "\u6bd4\u8f83": 3317,
  "\u2581l\u1ebdo": 3318,
  "\u2581Lucien": 3319,
  "\u5c31\u6709": 3320,
  "\u6b64\u4e8b": 3321,
  "\u2581Th\u1ed5": 3322,
  "\u2581d\u1eb7n": 3323,
  "\u2581ng\u1ea1o": 3324,
  "\u590d\u6742": 3325,
  "\u5c5e\u4e8e": 3326,
  "\u7684\u8840": 3327,
  "\u8def\u4e0a": 3328,
  "\u2581x\u01b0ng": 3329,
  "\u516c\u53f8": 3330,
  "\u60f3\u8d77": 3331,
  "\u5c24\u5176\u662f": 3332,
  "\u2581li\u1ec1u": 3333,
  "\u8001\u8005": 3334,
  "\u0110\u01b0\u1ee3c": 3335,
  "\u2581nh\u01b0\u1eddng": 3336,
  "\u2581H\u1ea7u": 3337,
  "\u2581c\u0103ng": 3338,
  "\u5728\u4e00\u8d77": 3339,
  "\u2581t\u00e2y": 3340,
  "\u6bb5\u65f6\u95f4": 3341,
  "\u2581\u0111\u1ed1ng": 3342,
  "\u2581\u01af": 3343,
  "\u4ed9\u4eba": 3344,
  "\u5206\u8eab": 3345,
  "\u6570\u91cf": 3346,
  "\u2581kh\u00f3c": 3347,
  "\u2581Th\u1eadm": 3348,
  "\u4e0d\u8d77": 3349,
  "\u2581Tr\u1ecdng": 3350,
  "\u800c\u540e": 3351,
  "\u7684\u5b9e\u529b": 3352,
  "\u7ed9\u4ed6": 3353,
  "\u2581song": 3354,
  "\u2581Quy": 3355,
  "\u65f6\u8fb0": 3356,
  "\u611f\u5e94": 3357,
  "\u2581ch\u1eefa": 3358,
  "\u4efb\u52a1": 3359,
  "\u4e86\u8fc7\u6765": 3360,
  "\u76f8\u5f53": 3361,
  "\u2581l\u01b0\u1ee1i": 3362,
  "\u7b3c\u7f69": 3363,
  "\u2581l\u00e1nh": 3364,
  "\u2581Ch\u00fang": 3365,
  "\u4e00\u8138": 3366,
  "\u4e00\u756a": 3367,
  "\u552f\u4e00": 3368,
  "\u2581ch\u1ed1t": 3369,
  "\u2581l\u1ea7m": 3370,
  "\u2581\u1ede": 3371,
  "\u505a\u5230": 3372,
  "\u7384\u5929": 3373,
  "\u2581c\u1ed5ng": 3374,
  "\u2581mi\u1ec5n": 3375,
  "\u4ed6\u4e5f": 3376,
  "\u8bf4\u5b8c": 3377,
  "\u2581ph\u1eabn": 3378,
  "\u597d\u5947": 3379,
  "\u611f\u5230": 3380,
  "\u2581t\u1ea1": 3381,
  "\u2581\u0110\u00f3": 3382,
  "\u2581m\u1eafn": 3383,
  "\u2581\u0111\u1ef1ng": 3384,
  "\u5929\u7a7a": 3385,
  "\u9053\u4eba": 3386,
  "\u5706\u6ee1": 3387,
  "\u2581\u1ea2nh": 3388,
  "\u2581n\u1edf": 3389,
  "\u2581h\u1ea1t": 3390,
  "\u653e\u5728": 3391,
  "\u2581h\u00e0n": 3392,
  "\u2581b\u00e1ch": 3393,
  "\u2581ng\u01b0\u1ee1ng": 3394,
  "\u79d8\u5bc6": 3395,
  "\u2581khe": 3396,
  "\u9752\u9633": 3397,
  "\u2581s\u1ee5p": 3398,
  "\u2581thi\u1ec7n": 3399,
  "\u2581ph\u1ebf": 3400,
  "\u6bd4\u5982": 3401,
  "\u5144\u5f1f": 3402,
  "\u2581t\u1ec9": 3403,
  "\u2581t\u1eb7ng": 3404,
  "\u6210\u5c31": 3405,
  "\u6d88\u8017": 3406,
  "\u7684\u4e1c\u897f": 3407,
  "\u8d44\u6e90": 3408,
  "\u770b\u8d77\u6765": 3409,
  "\u2581\u0110\u1ee9c": 3410,
  "\u2581chuy\u1ebfn": 3411,
  "\u2581Th\u1eafng": 3412,
  "\u592a\u8fc7": 3413,
  "\u5b89\u6392": 3414,
  "\u2581\u0110\u01b0\u01a1ng": 3415,
  "\u7a0b\u5ea6": 3416,
  "\u2581m\u1eb9": 3417,
  "\u00eca": 3418,
  "\u6682\u65f6": 3419,
  "\u4ed6\u5c31": 3420,
  "\u2581ch\u01b0": 3421,
  "\u2581gi\u1ea3ng": 3422,
  "\u51e0\u5206": 3423,
  "\u2581th\u1ed5i": 3424,
  "\u662f\u4ed6": 3425,
  "\u80fd\u91cf": 3426,
  "\u2581b\u1ed9i": 3427,
  "\u4e86\u89e3": 3428,
  "\u5bfb\u627e": 3429,
  "\u2581m\u1ec7t": 3430,
  "\u2581b\u00e1": 3431,
  "\u2581ng\u00e2m": 3432,
  "\u00edm": 3433,
  "\u5feb\u901f": 3434,
  "\u5de6\u53f3": 3435,
  "\u5f71\u5b50": 3436,
  "\u2581\u0110\u00e1m": 3437,
  "\u2581ru": 3438,
  "\u2581ki\u1ec3u": 3439,
  "\u6709\u53ef\u80fd": 3440,
  "\u2581h\u00e1": 3441,
  "\u2581Giao": 3442,
  "\u8eab\u5f62": 3443,
  "\u2581em": 3444,
  "\u2581chi\u1ec1u": 3445,
  "\u2581d\u1ed3n": 3446,
  "\u2581r\u1eafn": 3447,
  "\u2581Dao": 3448,
  "\u2581L\u1ed9c": 3449,
  "\u2581si\u00eau": 3450,
  "\u2581\u0111i\u1ec7u": 3451,
  "\u2581c\u01b0\u01a1ng": 3452,
  "\u5438\u6536": 3453,
  "\u2581c\u1ea1n": 3454,
  "\u2581c\u1ea5t": 3455,
  "\u2581ng\u01a1": 3456,
  "\u8054\u7cfb": 3457,
  "\u5b50\u91cc": 3458,
  ",\u300c": 3459,
  "\u5c38\u4f53": 3460,
  "\u2581Ch\u1ea5n": 3461,
  "\u800c\u8a00": 3462,
  "\u611f\u89c9\u5230": 3463,
  "\u4f1a\u6709": 3464,
  "\u2581H\u00f9ng": 3465,
  "\u2581\u53ef": 3466,
  "\u63d0\u524d": 3467,
  "\u9646\u957f\u751f": 3468,
  "\u2581Ti\u1ebfng": 3469,
  "\u90a3\u5c31": 3470,
  "\u2581Truy\u1ec1n": 3471,
  "\u5bf9\u4ed6": 3472,
  "\u623f\u95f4": 3473,
  "\u2581Ti\u1ec1n": 3474,
  "\u2581Nhi\u1ebfp": 3475,
  "\u811a\u6b65": 3476,
  "\u8868\u73b0": 3477,
  "\u2581\u00f4": 3478,
  "\u2581\u6211": 3479,
  "\u98de\u5251": 3480,
  "\u2581Ca": 3481,
  "\u2581v\u00ed": 3482,
  "\u53f8\u5f92": 3483,
  "\u2581N\u00f3": 3484,
  "\u2581V\u1edbi": 3485,
  "\u2581\u0111\u1ed3n": 3486,
  "\u7ec8\u7a76": 3487,
  "\u9648\u4f36": 3488,
  "\u5e76\u4e0d\u662f": 3489,
  "\u2581ch\u0103m": 3490,
  "\u1ed9m": 3491,
  "\u5929\u624d": 3492,
  "\u2581\u1ea4": 3493,
  "\u519b\u961f": 3494,
  "\u65e0\u5fcc": 3495,
  "\u4ee4\u4eba": 3496,
  "\u8ba1\u5212": 3497,
  "\u2581\u0110\u00e3": 3498,
  "\u2581\u867d\u7136": 3499,
  "\u8d70\u53bb": 3500,
  "\u2581\u767d": 3501,
  "\u76ee\u524d": 3502,
  "\u4f1a\u513f": 3503,
  "\u2581th\u00e1n": 3504,
  "\u6124\u6012": 3505,
  "\u8be1\u5f02": 3506,
  "\u957f\u5b89": 3507,
  "\u2581c\u1ea3i": 3508,
  "\u2581k\u00edn": 3509,
  "\u624d\u662f": 3510,
  "\u654c\u4eba": 3511,
  "\u2581b\u1ed3i": 3512,
  "\u5927\u91cf": 3513,
  "\u2581ch\u00f3i": 3514,
  "\u5927\u591a": 3515,
  "\u9690\u85cf": 3516,
  "\u2581ng\u1ea1i": 3517,
  "\u2581khinh": 3518,
  "\u2581n\u00e9t": 3519,
  "\u5916\u9762": 3520,
  "\u4f55\u51b5": 3521,
  "\u5bf9\u65b9\u7684": 3522,
  "\u7d27\u5f20": 3523,
  "th": 3524,
  "\u70c8\u7684": 3525,
  "\u2581H\u1ed7n": 3526,
  "\u2581lay": 3527,
  "\u9010\u6e10": 3528,
  "\u4e0d\u8bf4": 3529,
  "\u76ee\u6807": 3530,
  "\u2581x\u00e2m": 3531,
  "\u4e00\u4ef6": 3532,
  "\u4e09\u9636": 3533,
  "Ch\u1ec9": 3534,
  "\u4e86\u4e00\u4e2a": 3535,
  "\u7684\u901f\u5ea6": 3536,
  "\u2581Con": 3537,
  "\u2581b\u1ed1c": 3538,
  "\u2581l\u1eeba": 3539,
  "\u4e86\u4e00\u4e9b": 3540,
  "\u8fd8\u6ca1\u6709": 3541,
  "\u2581C\u00e0n": 3542,
  "\u2581so\u00e1t": 3543,
  "\u2581Kh\u01b0\u01a1ng": 3544,
  "\u5e74\u524d": 3545,
  "\u5f53\u4e2d": 3546,
  "\u2581treo": 3547,
  "\u2581\u00dd": 3548,
  "\u610f\u7684": 3549,
  "\u9053\u7684": 3550,
  "\u7740\u7684": 3551,
  "\u2581t\u1ef1u": 3552,
  "\u2581T\u0129nh": 3553,
  "\u5f02\u5e38": 3554,
  "\u662f\u8c01": 3555,
  "\u6ca1\u4ec0\u4e48": 3556,
  "\u2581nhi": 3557,
  "\u4e86\u4e24": 3558,
  "\u7206\u53d1": 3559,
  "\u2581Th\u1ea9m": 3560,
  "\u4e0a\u6765": 3561,
  "\u2581L\u1ed9": 3562,
  "\u2581b\u00fat": 3563,
  "\u6b7b\u4ea1": 3564,
  "\u76b1\u7709": 3565,
  "\u53ef\u6015": 3566,
  "\u2581t\u1ea3": 3567,
  "\u624b\u4e2d\u7684": 3568,
  "\u2581kh\u1ea9u": 3569,
  "\u5b83\u7684": 3570,
  "\u8bf4\u660e": 3571,
  "\u5e2e\u52a9": 3572,
  "\u70bc\u5668": 3573,
  "\u2581Nhi\u00ean": 3574,
  "\u6570\u5341": 3575,
  "\u2581Nhan": 3576,
  "\u9053\u7406": 3577,
  "\u2581l\u00f2": 3578,
  "\u2581ph\u1ea1t": 3579,
  "\u5929\u4e66": 3580,
  "\u771f\u5b9e": 3581,
  "\u2581T\u00fa": 3582,
  "\u2581n\u1ed1i": 3583,
  "\u4e0d\u6210": 3584,
  "\u4ed9\u5b50": 3585,
  "\u52a8\u7684": 3586,
  "\u2581B\u00e1t": 3587,
  "\u2581n\u00e1o": 3588,
  "Thi\u00ean": 3589,
  "\u5fc3\u7684": 3590,
  "\u2581H\u00ecnh": 3591,
  "\u2581vu\u1ed1t": 3592,
  "\u2581n\u1ec1": 3593,
  "\u4e00\u770b": 3594,
  "\u5168\u529b": 3595,
  "\u5916\u7684": 3596,
  "\u8fd9\u7b49": 3597,
  "\u8fd8\u4e0d": 3598,
  "\u2581D\u01b0": 3599,
  "\u2581h\u00edt": 3600,
  "\u2581Vi": 3601,
  "\u2581\u0111\u00e8": 3602,
  "\u6c14\u7684": 3603,
  "\u9b54\u6559": 3604,
  "\u2581H\u01b0\u01a1ng": 3605,
  "\u2581nh\u00e3n": 3606,
  "\u2581n\u1ea1n": 3607,
  "\u2581th\u1ecfa": 3608,
  "\u7b2c\u4e09": 3609,
  "\u2581h\u00f4i": 3610,
  "\u2581kh\u00f3a": 3611,
  "\u1eeam": 3612,
  "\u5c71\u7684": 3613,
  "\u5f88\u662f": 3614,
  "\u2581kh\u00f3e": 3615,
  "\u0110\u1ea1i": 3616,
  "\u5149\u660e": 3617,
  "\u2581Sa": 3618,
  "\u2581Kh\u1ed5ng": 3619,
  "\u59cb\u7ec8": 3620,
  "\u8bb0\u5fc6": 3621,
  "\u2581m\u1ef1c": 3622,
  "\u5357\u5bab": 3623,
  "\u2581ch\u1ecdc": 3624,
  "\u53c8\u6709": 3625,
  "\u2581thi\u00eau": 3626,
  "\u5c31\u88ab": 3627,
  "\u8ba4\u8bc6": 3628,
  "\u51e0\u4f4d": 3629,
  "\u5730\u9762": 3630,
  "\u2581C\u1ed1t": 3631,
  "\u2581To\u00e0n": 3632,
  "\u518d\u5ea6": 3633,
  "\u624b\u91cc": 3634,
  "\u8303\u56f4": 3635,
  "\u2581T\u00e2n": 3636,
  "Chuy\u1ec7n": 3637,
  "\u751f\u6d3b": 3638,
  "\u4e2d\u671f": 3639,
  "\u4f30\u8ba1": 3640,
  "\u5316\u795e": 3641,
  "\u8fd9\u4e24": 3642,
  "\u9a6c\u8f66": 3643,
  "\u2581Ki\u1ebfp": 3644,
  "\u5927\u6218": 3645,
  "\u4eba\u7269": 3646,
  "\u2581cam": 3647,
  "\u2581L\u01b0\u1ee1ng": 3648,
  "\u50a8\u7269": 3649,
  "\u2581h\u1eeb": 3650,
  "\u2581n\u1ed3ng": 3651,
  "\u51e1\u4eba": 3652,
  "\u4e00\u4e2a\u4e2a": 3653,
  "\u591a\u4e45": 3654,
  "\u8003\u8651": 3655,
  "\u53f6\u9ed8": 3656,
  "\u5411\u7740": 3657,
  "\u671b\u5411": 3658,
  "\u63a5\u4e0b\u6765": 3659,
  "\u7ed9\u6211": 3660,
  "\u2581nh\u00f5m": 3661,
  "\u5bf9\u4ed8": 3662,
  "\u6000\u7591": 3663,
  "\u2581Trang": 3664,
  "\u53ea\u6015": 3665,
  "\u611f\u53d7": 3666,
  "\u2581th\u1ed5": 3667,
  "\u2581Vi\u1ec7c": 3668,
  "\u00f9m": 3669,
  "\u5251\u6c14": 3670,
  "\u2581t\u00e1ch": 3671,
  "\u5730\u7684": 3672,
  "\u2581l\u00e0nh": 3673,
  "\u7075\u865a": 3674,
  "\u1ebfch": 3675,
  "\u2581ph\u00fac": 3676,
  "\u2581\u5927": 3677,
  "\u538b\u5236": 3678,
  "\u5080\u5121": 3679,
  "\u67d0\u79cd": 3680,
  "\u5239\u90a3": 3681,
  "\u9886\u609f": 3682,
  "\u2581m\u1ed9ng": 3683,
  "\u5e76\u672a": 3684,
  "\u5f3a\u884c": 3685,
  "\u2581ph\u00e0o": 3686,
  "\u2581su\u1ea5t": 3687,
  "\u7684\u5b58\u5728": 3688,
  "\u2581ph\u01b0\u1eddng": 3689,
  "\u2581V\u1ec7": 3690,
  "\u7684\u76ee\u5149": 3691,
  "\u4e0a\u54c1": 3692,
  "\u5728\u90a3": 3693,
  "\u5bfb\u5e38": 3694,
  "\u5c31\u7b97\u662f": 3695,
  "\u2581th\u01a1": 3696,
  "\u2581V\u1ed1n": 3697,
  "\u2581ph\u1ec7": 3698,
  "\u5c11\u5973": 3699,
  "\u2581V\u1ec1": 3700,
  "\u2581mu\u1ed9n": 3701,
  "Qu": 3702,
  "\u4e3b\u52a8": 3703,
  "\u4e0b\u610f\u8bc6": 3704,
  "\u7684\u611f\u89c9": 3705,
  "\u53cc\u65b9": 3706,
  "\u5728\u4e00": 3707,
  "\u59d1\u5a18": 3708,
  "\u6d51\u8eab": 3709,
  "\u7528\u7684": 3710,
  "\u2581tr\u1eebng": 3711,
  "\u4e5d\u5e7d": 3712,
  "\u2581Th\u01b0\u1eddng": 3713,
  "\u524d\u6765": 3714,
  "\u2581c\u01b0": 3715,
  "\u2581v\u00e3": 3716,
  "\u5b89\u5168": 3717,
  "\u6253\u5f00": 3718,
  "\u6d1e\u5929": 3719,
  "\u2581b\u1ed9c": 3720,
  "\u2581gh\u1ebf": 3721,
  "\u4e4b\u5185": 3722,
  "\u2581t\u00f2": 3723,
  "\u5929\u4eba": 3724,
  "\u2581Ch\u00ed": 3725,
  "\u2581B\u1eb1ng": 3726,
  "\u4ece\u6765": 3727,
  "\u2581t\u1edd": 3728,
  "\u2581Thi\u1ec7n": 3729,
  "\u5341\u4e8c": 3730,
  "\u5904\u7406": 3731,
  "\u8fdc\u8fdc": 3732,
  "\u2581\u0110\u1ed7": 3733,
  "\u51b2\u51fb": 3734,
  "\u5b8c\u6210": 3735,
  "\u6709\u4e9b\u4e0d": 3736,
  "\u2581n\u1ec1n": 3737,
  "\u2581l\u1ec7ch": 3738,
  "\u2581d\u1eaft": 3739,
  "\u5931\u8d25": 3740,
  "\u6539\u53d8": 3741,
  "\u2581V\u1eady": 3742,
  "\u2581\u0111\u1eb1ng": 3743,
  "\u2581\u53f6\u5c0f\u5ddd": 3744,
  "\u542c\u7740": 3745,
  "\u624b\u6307": 3746,
  "\u6beb\u4e0d": 3747,
  "\u2581\u0111\u1ea5m": 3748,
  "\u602a\u7269": 3749,
  "\u534a\u4e2a": 3750,
  "\u77e5\u6653": 3751,
  "\u2581d\u00e3": 3752,
  "\u2581chui": 3753,
  "\u8f7b\u6613": 3754,
  "\u8fd9\u4e9b\u5e74": 3755,
  "\u65c1\u8fb9": 3756,
  "\u2581\u00e2n": 3757,
  "\u2581\u0110\u1ea7u": 3758,
  "\u2581Ngo\u00e0i": 3759,
  "\u201d\u3002": 3760,
  "\u2581l\u1eedng": 3761,
  "\u4e8c\u9636": 3762,
  "\u2581T\u00e0": 3763,
  "\u51dd\u805a": 3764,
  "\u4e86\u4ec0\u4e48": 3765,
  "\u2581c\u1eafn": 3766,
  "\u2581kho\u00e1c": 3767,
  "\u5e03\u7f6e": 3768,
  "\u670b\u53cb": 3769,
  "\u2581ng\u01a1i": 3770,
  "\u4e00\u8eab": 3771,
  "\u5f88\u5927": 3772,
  "\u6709\u5173": 3773,
  "\u2581Ng\u00e2n": 3774,
  "\u54c8\u54c8": 3775,
  "\u5e08\u7236": 3776,
  "\u968f\u65f6": 3777,
  "\u2581ki\u1ec7t": 3778,
  "\u5de5\u4f5c": 3779,
  "\u610f\u5473": 3780,
  "\u8db3\u4ee5": 3781,
  "\u95e8\u6d3e": 3782,
  "\u63a5\u53d7": 3783,
  "\u7528\u6765": 3784,
  "\u9634\u9633": 3785,
  "\u2581lu\u1eadt": 3786,
  "\u843d\u4e0b": 3787,
  "\u2581nghi\u00eang": 3788,
  "\u8fde\u5fd9": 3789,
  "or": 3790,
  "\u8bf4\u4e0d\u5b9a": 3791,
  "\u5c5e\u6027": 3792,
  "\u2581ng\u1ee5m": 3793,
  "\u770b\u53bb": 3794,
  "\u8981\u6c42": 3795,
  "\u5927\u90e8\u5206": 3796,
  "\u01b0\u1eddn": 3797,
  "\u2581\u1eaft": 3798,
  "\u5df2\u7ecf\u662f": 3799,
  "\u2581C\u00f9ng": 3800,
  "\u2581\u6240\u4ee5": 3801,
  "\u2581lam": 3802,
  "\u2581\u0111\u1ea1m": 3803,
  "\u5176\u4f59": 3804,
  "\u5730\u4e0a": 3805,
  "\u2581tu\u1ea7n": 3806,
  "\u4f60\u662f": 3807,
  "\u957f\u65f6\u95f4": 3808,
  "\u2581b\u1ea3ng": 3809,
  "\u5dee\u70b9": 3810,
  "\u76ee\u7684": 3811,
  "\u7981\u5236": 3812,
  "\u2581\u0110\u1eb7c": 3813,
  "\u2581m\u00f4ng": 3814,
  "\u2581L\u1ec5": 3815,
  "\u7684\u5f1f\u5b50": 3816,
  "\u961f\u4f0d": 3817,
  "\u2581\u0110\u1ec7": 3818,
  "\u2581\u1eadp": 3819,
  "\u7b49\u5f85": 3820,
  "\u9a6c\u4e0a": 3821,
  "\u2581\u0111\u1edbn": 3822,
  "\u673a\u7532": 3823,
  "\u83ab\u65e0\u5fcc": 3824,
  "\u2581tim": 3825,
  "\u1eb9t": 3826,
  "\u8d44\u683c": 3827,
  "\u8f7b\u677e": 3828,
  "\u53d8\u6210\u4e86": 3829,
  "\u2581vi\u1ec5n": 3830,
  "\u2581L\u01b0\u1ee3ng": 3831,
  "\u90a3\u9053": 3832,
  "\u8eab\u8eaf": 3833,
  "\u2581\u0110\u1ee3i": 3834,
  "\u795e\u738b": 3835,
  "\u5185\u90e8": 3836,
  "\u2581S\u0129": 3837,
  "\u7684\u6d88\u606f": 3838,
  "\u7b11\u4e86\u7b11": 3839,
  "\u2581th\u00e8m": 3840,
  "\u80cc\u540e": 3841,
  "\u516c\u4e3b": 3842,
  "\u53e3\u4e2d": 3843,
  "\u2581Gi\u1edd": 3844,
  "\u2581\u0111i\u1ec1n": 3845,
  "!\u300d": 3846,
  "\u2581L\u01b0": 3847,
  "\u2581hu": 3848,
  "\u2581th\u1ecd": 3849,
  "Ch\u1eb3ng": 3850,
  "\u2581ch\u1ed1i": 3851,
  "\u2581ng\u1ea7m": 3852,
  "\u2581\u0111\u0103ng": 3853,
  "\u66f4\u591a": 3854,
  "\u2581g\u1eedi": 3855,
  "\u2581tr\u1ea1i": 3856,
  "\u2581\u1ea5m": 3857,
  "\u2581Nh\u00e3": 3858,
  "\u600e\u4e48\u53ef\u80fd": 3859,
  "\u5b9d\u7269": 3860,
  "\u2581H\u1eadu": 3861,
  "\u2581khuy\u1ebft": 3862,
  "\u5341\u51e0": 3863,
  "\u2581ch\u00e0o": 3864,
  "\u6307\u70b9": 3865,
  "\u2581\u00d4ng": 3866,
  "\u786e\u8ba4": 3867,
  "\u2581C\u00f4n": 3868,
  "\u2581l\u1ecfng": 3869,
  "\u7ed9\u4f60": 3870,
  "\u2581gi\u1ecdt": 3871,
  "\u6cd5\u9635": 3872,
  "\u2581ng\u1ed1c": 3873,
  "\u2581khu\u1ea5t": 3874,
  "\u8fd9\u8bdd": 3875,
  "\u2581\u0111u\u00f4i": 3876,
  "\u5de8\u5927": 3877,
  "\u5f53\u5373": 3878,
  "\u547c\u5438": 3879,
  "\u91cd\u4f24": 3880,
  "\u2581\u56e0\u4e3a": 3881,
  "\u6ce2\u52a8": 3882,
  "\u7537\u4eba": 3883,
  "\u8003\u6838": 3884,
  "\u4e0b\u6765\u7684": 3885,
  "\u2581th\u00ea": 3886,
  "\u538b\u529b": 3887,
  "\u8bf4\u8fc7": 3888,
  "\u5251\u5149": 3889,
  "\u90a3\u540d": 3890,
  "\u60f3\u4e86": 3891,
  "\u2581ngh\u1ecbch": 3892,
  "\u53cc\u773c": 3893,
  "\u2581N\u01a1i": 3894,
  "\u9887\u4e3a": 3895,
  "\u5ff5\u5934": 3896,
  "\u6cd5\u5219": 3897,
  "\u2581\u6bd5\u7adf": 3898,
  "\u2581c\u01a1m": 3899,
  "\u2581l\u0103n": 3900,
  "\u2581h\u1ea1nh": 3901,
  "\u2581M\u1ea1ch": 3902,
  "\u2581nh\u1ea1c": 3903,
  "\u624b\u638c": 3904,
  "\u2581\u0111\u00f9a": 3905,
  "\u2581C\u1ea3m": 3906,
  "\u5411\u524d": 3907,
  "\u8fd9\u4e9b\u4eba": 3908,
  "\u800c\u8d77": 3909,
  "\u8840\u8109": 3910,
  "\u2581B\u00ec": 3911,
  "\u2581nh\u1ee3t": 3912,
  "\u95f4\u7684": 3913,
  "\u56fd\u6559\u5b66\u9662": 3914,
  "\u2581Ng\u00f4n": 3915,
  "\u653e\u5fc3": 3916,
  "\u5510\u4e09\u5341\u516d": 3917,
  "\u965b\u4e0b": 3918,
  "\u4e07\u4ed9\u76df": 3919,
  "\u7684\u8eab\u5f71": 3920,
  "\u2581Ti\u1ebft": 3921,
  "\u2581g\u1ed3m": 3922,
  "\u5177\u4f53": 3923,
  "\u541e\u566c": 3924,
  "\u2581\u1ee7": 3925,
  "\u2581\u5929": 3926,
  "\u2581Ti\u1ebfu": 3927,
  "\u672a\u5fc5": 3928,
  "\u2581b\u00f2": 3929,
  "\u597d\u4f3c": 3930,
  "\u611f\u6168": 3931,
  "\u79d8\u5883": 3932,
  "\u2581l\u1ed9n": 3933,
  "\u2581ph\u1ecfng": 3934,
  "\u53c2\u52a0": 3935,
  "\u6ca1\u4e86": 3936,
  "\u672c\u547d": 3937,
  "\u2581ngh\u1ec7": 3938,
  "\u91d1\u8272": 3939,
  "\u52a8\u4e86": 3940,
  "\u65e0\u58f0": 3941,
  "\u2581s\u0103n": 3942,
  "\u2581giam": 3943,
  "\u592b\u4eba": 3944,
  "\u6740\u6b7b": 3945,
  "\u914d\u5408": 3946,
  "\u4e86\u8fc7\u53bb": 3947,
  "\u4e00\u65f6": 3948,
  "\u4eba\u5bb6": 3949,
  "\u2581s\u1ea5m": 3950,
  "\u2581m\u1ecfi": 3951,
  "\u2581Th\u1ea3o": 3952,
  "\u600e\u6837": 3953,
  "\u2581\u00f4n": 3954,
  "\u5b9e\u9645\u4e0a": 3955,
  "\u2581lang": 3956,
  "\u2581H\u1ea1c": 3957,
  "\u2581Ph\u00eda": 3958,
  "\u5728\u5929": 3959,
  "\u96be\u602a": 3960,
  "\u2581Chuy\u1ec7n": 3961,
  "\u4e4b\u95f4\u7684": 3962,
  "\u2581\u0111i\u1ec3n": 3963,
  "\u5168\u8eab": 3964,
  "\u5b97\u5e08": 3965,
  "\u2581\u0111eo": 3966,
  "\u98a4\u6296": 3967,
  "\u2581h\u00e9t": 3968,
  "\u2581ch\u00e9n": 3969,
  "\u5fc3\u5934": 3970,
  "\u2581mau": 3971,
  "\u4f38\u624b": 3972,
  "\u9aa4\u7136": 3973,
  "\u2581\u0110\u1ed9": 3974,
  "\u2581\u8d3a\u7075\u5ddd": 3975,
  "\u2581t\u1ed1": 3976,
  "\u73b0\u5728\u7684": 3977,
  "\u81ea\u7136\u662f": 3978,
  "\u2581say": 3979,
  "\u2581Lai": 3980,
  "\u2581nu\u00f4i": 3981,
  "\u2581t\u1ed1ng": 3982,
  "\u501f\u52a9": 3983,
  "\u8bb8\u4e45": 3984,
  "\u2581t\u00e0u": 3985,
  "\u6ee1\u4e86": 3986,
  "\u9662\u957f": 3987,
  "C\u00f2n": 3988,
  "\u4e4b\u6cd5": 3989,
  "\u518d\u8bf4": 3990,
  "\u7684\u767d": 3991,
  "\u83ab\u540d": 3992,
  "\u6e05\u6670": 3993,
  "\u75db\u82e6": 3994,
  "\u2581chim": 3995,
  "\u5927\u4e86": 3996,
  "\u8f6c\u5934": 3997,
  "\u2581v\u1ecf": 3998,
  "\u2581ch\u1ed3ng": 3999,
  "\u878d\u5408": 4000,
  "\u770b\u7740\u4ed6": 4001,
  "\u2581Th\u1eeba": 4002,
  "\u2581di\u1ec5m": 4003,
  "\u597d\u597d": 4004,
  "\u8eab\u4e3a": 4005,
  "\u2581Thai": 4006,
  "\u54b1\u4eec": 4007,
  "\u5f00\u542f": 4008,
  "\u83b7\u5f97": 4009,
  "\u2581Ng\u1ef1": 4010,
  "\u2581c\u00e1t": 4011,
  "\u90a3\u822c": 4012,
  "\u5973\u4eba": 4013,
  "\u7279\u522b": 4014,
  "\u2581t\u1eaft": 4015,
  "\u56de\u4e8b": 4016,
  "\u5e08\u5f1f": 4017,
  "\u7528\u4e86": 4018,
  "\u5c31\u50cf\u662f": 4019,
  "\u4e0d\u4e45": 4020,
  "\u2581d\u00e0nh": 4021,
  "\u4e00\u5934": 4022,
  "\u5728\u6b64": 4023,
  "\u8bb0\u5f97": 4024,
  "\u5374\u6ca1\u6709": 4025,
  "\u7684\u6c14\u606f": 4026,
  "\u2581Nguy": 4027,
  "\u2581v\u1eb9n": 4028,
  "\u2581x\u00edch": 4029,
  "\u1ee5a": 4030,
  "\u672a\u6765": 4031,
  "\u2581b\u00e8n": 4032,
  "\u2581Cu\u1ed1i": 4033,
  "\u2581Nham": 4034,
  "\u592a\u5b50": 4035,
  "\u6001\u5ea6": 4036,
  "\u770b\u51fa": 4037,
  "\u7075\u6839": 4038,
  "\u754c\u7684": 4039,
  "\u770b\u4f3c": 4040,
  "\u2581c\u1ed9t": 4041,
  "\u2581M\u1ed9ng": 4042,
  "\u4f4e\u5934": 4043,
  "\u5c31\u53ef\u4ee5": 4044,
  "\u2581tri\u1ec7t": 4045,
  "\u2581L\u00e2n": 4046,
  "\u2581ch\u00f3": 4047,
  "\u2581nan": 4048,
  "\u2581m\u00e0ng": 4049,
  "\u53ef\u89c1": 4050,
  "\u2581D\u1ecbch": 4051,
  "\u65e0\u5c3d": 4052,
  "\u773c\u524d\u7684": 4053,
  "\u2581Tri": 4054,
  "\u60f3\u8c61": 4055,
  "\u968f\u610f": 4056,
  "\u2581sung": 4057,
  "\u2581kh\u00edch": 4058,
  "\u8001\u5934": 4059,
  "\u2581\u01a1n": 4060,
  "\u770b\u4e86\u4e00\u773c": 4061,
  "\u4eba\u4eec": 4062,
  "\u65b9\u5f0f": 4063,
  "\u88ab\u4ed6": 4064,
  "\u8ba4\u771f": 4065,
  "\u524d\u7684": 4066,
  "\u65e0\u4eba": 4067,
  "\u2581kh\u1eb3ng": 4068,
  "\u5927\u5e1d": 4069,
  "\u70bc\u5316": 4070,
  "\u60c5\u62a5": 4071,
  "\u5373\u4fbf\u662f": 4072,
  "\u2581Ph\u1ea3i": 4073,
  "\u2581nghi\u1ebfn": 4074,
  "L\u00e0": 4075,
  "\u597d\u5904": 4076,
  "\u5c06\u4ed6": 4077,
  "\u795e\u5ff5": 4078,
  "\u8ba9\u6211": 4079,
  "\u95ed\u5173": 4080,
  "\u8005\u7684": 4081,
  "\u2581\u0111\u00e3i": 4082,
  "\u2581h\u01b0ng": 4083,
  "\u4e0a\u53e4": 4084,
  "\u5634\u89d2": 4085,
  "\u2581\u9648\u8ff9": 4086,
  "\u2581B\u1ecdn": 4087,
  "\u2581bia": 4088,
  "\u2581Kh\u00f4i": 4089,
  "\u4f5c\u7528": 4090,
  "\u660e\u660e": 4091,
  "\u2581\u5b81\u7f3a": 4092,
  "\u2581nha": 4093,
  "\u2581hang": 4094,
  "\u66e6\u660e": 4095,
  "\u2581Ch\u01b0\u01a1ng": 4096,
  "\u5c0f\u5b50": 4097,
  "\u610f\u4e49": 4098,
  "\u2581m\u00e9t": 4099,
  "\u2581t\u00e2n": 4100,
  "\u9760\u8fd1": 4101,
  "\u2581t\u1eb7c": 4102,
  "\u2581\u0110inh": 4103,
  "\u5c01\u5370": 4104,
  "\u638c\u63a7": 4105,
  "\u9547\u538b": 4106,
  "\u4e5f\u4e0d\u77e5\u9053": 4107,
  "\u4e5f\u5f88": 4108,
  "\u72e0\u72e0": 4109,
  "\u2581K\u1ebb": 4110,
  "\u2581quy\u1ec3n": 4111,
  "\u51e0\u5929": 4112,
  "\u2581hi\u1ebfp": 4113,
  "\u4e0d\u592a": 4114,
  "\u1eb9o": 4115,
  "\u63a5\u89e6": 4116,
  "\u6697\u4e2d": 4117,
  "\u5883\u754c\u7684": 4118,
  "\u2581m\u1eabu": 4119,
  "\u2581t\u00edm": 4120,
  "\u2581\u0111\u00f3a": 4121,
  "\u521d\u671f": 4122,
  "\u795e\u79d8": 4123,
  "\u82cd\u767d": 4124,
  "\u4e00\u628a": 4125,
  "\u4e0a\u524d": 4126,
  "\u627f\u53d7": 4127,
  "\u65b0\u7684": 4128,
  "\u2581tha": 4129,
  "\u2581kh\u1ea9n": 4130,
  "\u6839\u636e": 4131,
  "\u5f00\u6765": 4132,
  "\u2581T\u01b0\u1ee3ng": 4133,
  "\u6700\u9ad8": 4134,
  "\u2581tr\u0103ng": 4135,
  "\u4fdd\u6301": 4136,
  "i\u1ec1m": 4137,
  "\u6ca1\u6709\u4eba": 4138,
  "\u2581M\u1ec7nh": 4139,
  "\u673a\u7f18": 4140,
  "\u4e0d\u52a8": 4141,
  "\u624d\u4f1a": 4142,
  "\u2581L\u1ec7": 4143,
  "\u2581th\u1ecbnh": 4144,
  "\u1ee5t": 4145,
  "\u5404\u81ea": 4146,
  "\u2581ch\u00e1u": 4147,
  "\u2581ti\u1ec7m": 4148,
  "\u2581tr\u00e1ng": 4149,
  "ia": 4150,
  "\u2581v\u00fat": 4151,
  "\u2581m\u1eafng": 4152,
  "\u4e2a\u4eba": 4153,
  "\u611f\u53d7\u5230": 4154,
  "\u2581H\u00f4m": 4155,
  "\u2581d\u1eadp": 4156,
  "\u2581leo": 4157,
  "\u76f8\u6bd4": 4158,
  "\u79bb\u53bb": 4159,
  "\u95ea\u8fc7": 4160,
  "\u2581can": 4161,
  "\u4e0d\u884c": 4162,
  "\u5b9b\u5982": 4163,
  "\u89c6\u7ebf": 4164,
  "\u2581\u7f57\u5c18": 4165,
  "\u9668\u843d": 4166,
  "\u2581\u8fd9\u4e00": 4167,
  "\u53cd\u6b63": 4168,
  "\u65e0\u5948": 4169,
  "\u9b3c\u7384": 4170,
  "\u82cd\u4e91\u95e8": 4171,
  "\u2581Ph\u00f3": 4172,
  "\u5e08\u7684": 4173,
  "\u2581T\u1ea3": 4174,
  "\u2581c\u1ea5u": 4175,
  "\u2581g\u00e3y": 4176,
  "\u4f1a\u7684": 4177,
  "\u2581h\u1ea3o": 4178,
  "\u98de\u884c": 4179,
  "\u2581ho\u00e1": 4180,
  "\u7b49\u5230": 4181,
  "\u2581Th\u1eadt": 4182,
  "\u2581m\u1ecfng": 4183,
  "\u5929\u5c0a": 4184,
  "\u8fd9\u65f6\u5019": 4185,
  "\u2581\u5c0f": 4186,
  "\u7559\u5728": 4187,
  "\u8d1f\u8d23": 4188,
  "\u2581h\u1ed9p": 4189,
  "\u5fc3\u60c5": 4190,
  "\u575a\u6301": 4191,
  "\u2581th\u00f4": 4192,
  "\u5c06\u8fd9": 4193,
  "\u62ac\u8d77": 4194,
  "\u4fee\u58eb\u7684": 4195,
  "\u2581\u0111\u00fac": 4196,
  "\u2581thao": 4197,
  "\u52aa\u529b": 4198,
  "\u5230\u65f6\u5019": 4199,
  "\u2581nh\u00e3": 4200,
  "\u2581nghi\u1ec1n": 4201,
  "\u5fc3\u795e": 4202,
  "\u2581K\u1ef7": 4203,
  "\u2581la": 4204,
  "\u2581tr\u01b0\u01a1ng": 4205,
  "\u4e00\u53e3": 4206,
  "\u6df3\u534e": 4207,
  "\u2581\u6b64\u65f6": 4208,
  "\u8d3a\u6df3\u534e": 4209,
  "\u2581Ch\u01b0\u1edfng": 4210,
  "\u89c1\u4ed6": 4211,
  "\u2581nh\u1ec9": 4212,
  "\u6b7b\u7684": 4213,
  "\u8fd9\u5c31\u662f": 4214,
  "\u4e00\u5904": 4215,
  "\u4e4b\u610f": 4216,
  "\u65f6\u523b": 4217,
  "\u6781\u5176": 4218,
  "\u9759\u9759": 4219,
  "\u2581l\u01b0\u1ee3n": 4220,
  "\u2581nh\u1edf": 4221,
  "\u2581M\u1ea1nh": 4222,
  "\u2581phim": 4223,
  "\u524d\u9762": 4224,
  "\u5f62\u6210": 4225,
  "\u1ec7n": 4226,
  "\u2581M\u1ed7i": 4227,
  "\u4ea7\u751f": 4228,
  "\u2581x\u1ea3o": 4229,
  "\u2581\u2018": 4230,
  "\u2581Tuy\u1ec7t": 4231,
  "\u2581khi\u00eau": 4232,
  "\u2581\u00e0": 4233,
  "\u529f\u592b": 4234,
  "\u2581Di\u1ec5n": 4235,
  "\u52c9\u5f3a": 4236,
  "\u7b80\u76f4": 4237,
  "\u2581xinh": 4238,
  "\u51e0\u4eba": 4239,
  "\u5e74\u7684": 4240,
  "\u2581th\u00e1c": 4241,
  "\u5e08\u53d4": 4242,
  "\u5e08\u5c0a": 4243,
  "\u7535\u8bdd": 4244,
  "\u2581gi\u1ea5c": 4245,
  "\u2581P": 4246,
  "\u4e0d\u65f6": 4247,
  "\u674e\u7384": 4248,
  "\u7684\u6c14": 4249,
  "\u2581l\u00ednh": 4250,
  "\u2581gi\u01b0\u1eddng": 4251,
  "\u2581l\u1ebb": 4252,
  "\u6709\u6ca1\u6709": 4253,
  "\u53f3\u624b": 4254,
  "\u662f\u6211": 4255,
  "\u2581H\u1ecd": 4256,
  "\u4e0d\u8fdc\u5904": 4257,
  "\u2581mi\u1ebfng": 4258,
  "\u9b54\u65cf": 4259,
  "\u2581R\u1ea5t": 4260,
  "\u60f3\u6765": 4261,
  "\u6211\u5c31": 4262,
  "\u7b54\u5e94": 4263,
  "\u2581Chi\u00eau": 4264,
  "\u5174\u8da3": 4265,
  "\u5c42\u6b21": 4266,
  "\u6740\u4eba": 4267,
  "\u2581tri": 4268,
  "\u2581Kh\u00fac": 4269,
  "\u4e86\u4e9b": 4270,
  "\u5076\u5c14": 4271,
  "\u7c7b\u4f3c": 4272,
  "\u6b63\u597d": 4273,
  "\u2581t\u00fang": 4274,
  "\u4e86\u5427": 4275,
  "\u8d85\u8fc7": 4276,
  "\u2581c\u1eafm": 4277,
  "\u2581Kh\u00e2u": 4278,
  "\u2581s\u00fang": 4279,
  "\u2581nheo": 4280,
  "\u4e86\u4ed6": 4281,
  "\u4f20\u8bf4": 4282,
  "\u6b63\u9053": 4283,
  "\u2581bi\u1ec7n": 4284,
  "\u4e0d\u591f": 4285,
  "\u53d6\u51fa": 4286,
  "\u5929\u7384": 4287,
  "\u6700\u5927\u7684": 4288,
  "\u8fbe\u5230\u4e86": 4289,
  "\u4e00\u5ea7": 4290,
  "\u4fee\u884c\u8005": 4291,
  "\u731c\u6d4b": 4292,
  "\u2581h\u00e0": 4293,
  "\u2581d\u1ecda": 4294,
  "\u2581m\u1ecdc": 4295,
  "\u2581ng\u1ee7i": 4296,
  "\u2581Th\u1ee5": 4297,
  "\u300b,": 4298,
  "\u5b66\u4e60": 4299,
  "\u661f\u6d77": 4300,
  "\u8fd9\u573a": 4301,
  "\u2581Qu\u00fd": 4302,
  "\u2581qu\u1ea5n": 4303,
  "\u2581thai": 4304,
  "\u8fd9\u7247": 4305,
  "\u51fa\u73b0\u4e86": 4306,
  "\u5728\u5730\u4e0a": 4307,
  "\u2581l\u00e3ng": 4308,
  "\u547d\u4ee4": 4309,
  "\u6253\u91cf": 4310,
  "\u2581ho\u00e0nh": 4311,
  "\u5143\u6c14": 4312,
  "\u5e74\u7eaa": 4313,
  "\u63a5\u8fd1": 4314,
  "\u2581Kha": 4315,
  "\u2581m\u1ed3": 4316,
  "\u695a\u79e6": 4317,
  "\u2581T\u1eedu": 4318,
  "\u2581r\u1ed3ng": 4319,
  "\u7687\u5e1d": 4320,
  "\u8bf8\u4f4d": 4321,
  "\u95ea\u70c1": 4322,
  "\u770b\u4e0a\u53bb": 4323,
  "\u2581......": 4324,
  "\u56db\u9636": 4325,
  "\u624b\u4e0b": 4326,
  "\u6709\u4e2a": 4327,
  "\u9ed8\u9ed8": 4328,
  "\u2581l\u0169y": 4329,
  "Ng\u01b0\u1eddi": 4330,
  "\u2581Tr\u1ea5n": 4331,
  "\u2581gi\u00e2y": 4332,
  "\u2581ngh\u00ecn": 4333,
  "\u8bed\u6c14": 4334,
  "\u2581\u0110\u1ec3": 4335,
  "\u2581tr\u1ee3n": 4336,
  "\u2581Gi\u1ea3i": 4337,
  "S\u01b0": 4338,
  "\u75d5\u8ff9": 4339,
  "\u2581th\u00e1p": 4340,
  "\u552f\u6709": 4341,
  "\u2581So": 4342,
  "\u7684\u8eab\u4efd": 4343,
  "\u2581s\u00f4i": 4344,
  "\u2581B\u00e1n": 4345,
  "\u2581xoa": 4346,
  "\u4e00\u679a": 4347,
  "\u5929\u5bab": 4348,
  "\u5e2e\u5fd9": 4349,
  "\u6709\u5bb9": 4350,
  "\u5df2\u7ecf\u88ab": 4351,
  "\u2581m\u1ec1m": 4352,
  "\u2581ti\u1ec5n": 4353,
  "\u4e4b\u6c14": 4354,
  "\u53ea\u5269": 4355,
  "\u8981\u4e48": 4356,
  "\u96f7\u9706": 4357,
  "\u513f\u5b50": 4358,
  "\u6050\u60e7": 4359,
  "\u2581b\u00e3i": 4360,
  "\u5173\u4e8e": 4361,
  "\u597d\u51e0": 4362,
  "\u2581trao": 4363,
  "\u2581ch\u1ee7ng": 4364,
  "\u5883\u7684": 4365,
  "\u653e\u5f03": 4366,
  "\u2581Uy\u1ec3n": 4367,
  "\u2581Thi\u1ec1n": 4368,
  "\u4f46\u5728": 4369,
  "\u2581ngh\u00eanh": 4370,
  "\u4e00\u95ea": 4371,
  "\u65e0\u7a77": 4372,
  "\u2581n\u1ea5y": 4373,
  "\u2581tr\u1ecdn": 4374,
  "\u5341\u4e07": 4375,
  "\u4fdd\u62a4": 4376,
  "\u5802\u4e3b": 4377,
  "\u8ba9\u4ed6\u4eec": 4378,
  "\u505a\u7684": 4379,
  "\u770b\u5f97": 4380,
  "\u2581ch\u1edf": 4381,
  "\u80fd\u4e0d\u80fd": 4382,
  "\u8d76\u7d27": 4383,
  "\u2581T\u1ed1": 4384,
  "\u2581Th\u1ec3": 4385,
  "\u2581ch\u1eadt": 4386,
  "\u57fa\u7840": 4387,
  "\u8270\u96be": 4388,
  "\u2581Xu": 4389,
  "\u4e0d\u8fc7\u662f": 4390,
  "\u77e5\u9053\u4e86": 4391,
  "\u2581non": 4392,
  "\u2581tr\u00e1n": 4393,
  "\u56de\u4e86": 4394,
  "\u751f\u751f": 4395,
  "\u2581Tr\u1ea1ch": 4396,
  "\u2581tuy\u00ean": 4397,
  "\u2581\u6797": 4398,
  "\u6216\u662f": 4399,
  "\u3002\u300d\u300c": 4400,
  "\u2581m\u1ea5u": 4401,
  "\u2581kh\u00fac": 4402,
  "\u8bf4\u7740": 4403,
  "\u6240\u6709\u4eba": 4404,
  "\u767d\u7389": 4405,
  "\u901a\u9053": 4406,
  "\u2581\u0111\u1ea3": 4407,
  "\u5305\u62ec": 4408,
  "\u5386\u53f2": 4409,
  "\u5b9a\u7684": 4410,
  "\u6211\u4e5f": 4411,
  "\u6ca1\u4eba": 4412,
  "\u4e0d\u6b62": 4413,
  "\u4f1a\u88ab": 4414,
  "\u2581Man": 4415,
  "\u4e00\u6765": 4416,
  "\u4f20\u6cd5": 4417,
  "\u60ca\u8bb6": 4418,
  "\u5176\u4ed6\u4eba": 4419,
  "\u731b\u5730": 4420,
  "\u7ea7\u522b": 4421,
  "\u4e00\u53e3\u6c14": 4422,
  "\u6765\u5230\u4e86": 4423,
  "\u2581d\u1ecdn": 4424,
  "\u4e0a\u5b98": 4425,
  "\u8d70\u51fa": 4426,
  "\u2581\u0111\u1ee9c": 4427,
  "\u2581Gi\u00e1c": 4428,
  "\u2581nh\u1eb7t": 4429,
  "\u2581\u5f53": 4430,
  "\u7ec3\u6c14": 4431,
  "\u7ecf\u9a8c": 4432,
  "\u8d8a\u53d1": 4433,
  "\u70b9\u70b9\u5934": 4434,
  "\u2581kho\u1ea3n": 4435,
  "\u7adf\u662f": 4436,
  "\u518d\u52a0\u4e0a": 4437,
  "\u8fd9\u53e5\u8bdd": 4438,
  "\u62f3\u5934": 4439,
  "\u79cd\u79cd": 4440,
  "\u4f1a\u4e0d\u4f1a": 4441,
  "\u5f90\u6709\u5bb9": 4442,
  "\u1eb3m": 4443,
  "\u5475\u5475": 4444,
  "\u6211\u662f": 4445,
  "\u63d0\u9192": 4446,
  "\u2581kho\u00e1t": 4447,
  "oi": 4448,
  "\u4fe1\u606f": 4449,
  "\u95e8\u53e3": 4450,
  "\u76d8\u9f99\u57ce": 4451,
  "\u65f6\u5149": 4452,
  "\u661f\u8fb0": 4453,
  "\u8bd5\u56fe": 4454,
  "\u7684\u6837\u5b50": 4455,
  "\u79bb\u5f00\u4e86": 4456,
  "\u2581n\u00e3y": 4457,
  "\u2581v\u1ee3": 4458,
  "\u7684\u673a\u4f1a": 4459,
  "\u2581Nh\u1eadt": 4460,
  "\u2581ch\u00fac": 4461,
  "\u2581\u738b": 4462,
  "\u5b8c\u7f8e": 4463,
  "\u4e8b\u5b9e": 4464,
  "\u5c1d\u8bd5": 4465,
  "\u601d\u8003": 4466,
  "\u77f3\u5934": 4467,
  "\u2581Khu": 4468,
  "\u2581\u4ece": 4469,
  "\u6240\u6709\u4eba\u90fd": 4470,
  "\u4e3b\u8981": 4471,
  "\u533a\u57df": 4472,
  "\u8be2\u95ee": 4473,
  "\u5e73\u539f": 4474,
  "\u76f8\u5bf9": 4475,
  "\u2581su\u1ed1i": 4476,
  "\u2581ng\u00e2y": 4477,
  "\u2581x\u1ee9ng": 4478,
  "\u2581th\u01b0\u1edbc": 4479,
  "\u2581S\u01a1": 4480,
  "\u8bf4\u4ec0\u4e48": 4481,
  "\u8fd9\u4e00\u5e55": 4482,
  "......\u201d\u201c": 4483,
  "\u4e00\u5929": 4484,
  "\u4f24\u52bf": 4485,
  "\u6563\u53d1": 4486,
  "\u2581v\u0129nh": 4487,
  "\u884c\u52a8": 4488,
  "\u2581\u00c2n": 4489,
  "\u2581a": 4490,
  "\u2581\u300a": 4491,
  "\u2581T\u00e1c": 4492,
  "\u524d\u5f80": 4493,
  "\u5730\u4f4d": 4494,
  "\u6700\u4e3a": 4495,
  "\u2581\u00c1m": 4496,
  "\u2581\u4ed6\u4eec": 4497,
  "\u2581T\u00e1n": 4498,
  "\u4e00\u573a": 4499,
  "C\u00e1c": 4500,
  "\u2581th\u1eb3m": 4501,
  "\u5174\u594b": 4502,
  "Sao": 4503,
  "\u6ca1\u6709\u4ec0\u4e48": 4504,
  "\u2581s\u1eebng": 4505,
  "\u2581g\u1ea7y": 4506,
  "\u65e0\u5f62": 4507,
  "\u2581Ho\u00e0i": 4508,
  "\u2581d\u00ednh": 4509,
  "\u6027\u547d": 4510,
  "\u6709\u591a": 4511,
  "\u73af\u5883": 4512,
  "\u2581Nghi": 4513,
  "\u2581thu\u00ea": 4514,
  "\u4e09\u4f4d": 4515,
  "\u539f\u5730": 4516,
  "\u5e72\u51c0": 4517,
  "\u767e\u91cc": 4518,
  "\u7684\u9635\u6cd5": 4519,
  "\u2581\u0111\u1ea1p": 4520,
  "\u1edbng": 4521,
  "\u2581L\u1ef1c": 4522,
  "\u2581tr\u1ed9m": 4523,
  "\u2581nh\u01b0\u1edbng": 4524,
  "\u5bfc\u81f4": 4525,
  "\u6700\u597d": 4526,
  "\u4e00\u9053\u9053": 4527,
  "\u2581M\u1eabn": 4528,
  "\u2581thang": 4529,
  "\u5f88\u6e05\u695a": 4530,
  "\u2581Di\u00ean": 4531,
  "\u2581\u2014": 4532,
  "\u7531\u4e8e": 4533,
  "\u2581ng\u00e2n": 4534,
  "\u897f\u9675": 4535,
  "\u660e\u767d\u4e86": 4536,
  "\u7684\u624b\u6bb5": 4537,
  "\u2581\u53f6": 4538,
  "\u50ac\u52a8": 4539,
  "\u2581Ai": 4540,
  "\u0110\u00e3": 4541,
  "\u4eba\u7fa4": 4542,
  "\u5b9e\u5728\u662f": 4543,
  "\u65c1\u7684": 4544,
  "\u2581h\u1ed1": 4545,
  "\u2581May": 4546,
  "\u2581qu\u1ea3ng": 4547,
  "\u2581kh\u1ed1n": 4548,
  "\u70ed\u95f9": 4549,
  "\u4e5f\u65e0\u6cd5": 4550,
  "\u2581Nha": 4551,
  "\u2581V\u1eadn": 4552,
  "\u2581h\u1ec7t": 4553,
  "\u2581Th\u00e1p": 4554,
  "\u2581Ti\u1ebfp": 4555,
  "\u2581Qu\u1ea3ng": 4556,
  "\u56db\u4e2a": 4557,
  "\u770b\u4e0d": 4558,
  "\u7b51\u57fa\u4fee\u58eb": 4559,
  "\u2581T\u1eebng": 4560,
  "\u529b\u7684": 4561,
  "\u56e0\u4e3a\u4ed6": 4562,
  "\u2019,": 4563,
  "\u4e00\u53e5": 4564,
  "\u5934\u7684": 4565,
  "\u5fc5\u8981": 4566,
  "\u6025\u5fd9": 4567,
  "\u2581phe": 4568,
  "\u4e00\u767e": 4569,
  "\u4f0f\u5c71": 4570,
  "\u5927\u6bbf": 4571,
  "\u65cf\u4eba": 4572,
  "\u2581C\u00e2u": 4573,
  "\u2581t\u1ea9u": 4574,
  "\u2581Tr\u1ea7m": 4575,
  "\u4ee5\u6765": 4576,
  "\u90a3\u5c31\u662f": 4577,
  "\u2581b\u00e1nh": 4578,
  "\u2581l\u01b0\u1eddng": 4579,
  "\u8840\u8089": 4580,
  "\u9002\u5408": 4581,
  "\u964d\u4e34": 4582,
  "\u6b64\u5730": 4583,
  "\u6ee1\u8138": 4584,
  "\u9a91\u5175": 4585,
  "\u4e86\u4e00\u53e5": 4586,
  "\u6240\u6709\u7684": 4587,
  "\u2581Vinh": 4588,
  "\u5fc3\u601d": 4589,
  "\u2581c\u01b0\u1ee1i": 4590,
  "\u505a\u51fa": 4591,
  "\u65e5\u5b50": 4592,
  "\u8574\u542b": 4593,
  "\u91d1\u5149": 4594,
  "\u2581\u0111\u00f2i": 4595,
  "\u2581ch\u00e1n": 4596,
  "\u8fd8\u672a": 4597,
  "\u6700\u591a": 4598,
  "C\u00e1i": 4599,
  "\u2581\u5f53\u7136": 4600,
  "\u2581d\u0169ng": 4601,
  "\u4e24\u540d": 4602,
  "\u2581ng\u1eef": 4603,
  "\u2581F": 4604,
  "\u51dd\u91cd": 4605,
  "\u5730\u6bcd": 4606,
  "\u65e0\u8bba\u662f": 4607,
  "\u2581D\u1eadt": 4608,
  "\u53c2\u4e0e": 4609,
  "\u7684\u9ad8": 4610,
  "\u8111\u6d77\u4e2d": 4611,
  "\u2581L\u1eadp": 4612,
  "\u2581\u800c\u4e14": 4613,
  "\u5f20\u5e08": 4614,
  "\u52a8\u9759": 4615,
  "\u5c31\u5df2\u7ecf": 4616,
  "\u767d\u5b50": 4617,
  "\u8fd9\u4eba": 4618,
  "\u2581v\u1ea3i": 4619,
  "\u2581Cu": 4620,
  "\u5341\u4f59": 4621,
  "\u8ffd\u6740": 4622,
  "\u5185\u5bb9": 4623,
  "\u505a\u4ec0\u4e48": 4624,
  "\u2581V\u1eabn": 4625,
  "\u2581Di\u1ec5m": 4626,
  "\u7684\u98ce": 4627,
  "\u2581T\u00e0o": 4628,
  "\u2581r\u1eeda": 4629,
  "\u2581tr\u00f3i": 4630,
  "\u5979\u4eec": 4631,
  "\u9661\u7136": 4632,
  "\u2581Hi\u1ec3u": 4633,
  "\u6211\u7b49": 4634,
  "\u7075\u5b9d": 4635,
  "\u7684\u5149": 4636,
  "\u2581\u1ee7ng": 4637,
  "**": 4638,
  "\u5438\u5f15": 4639,
  "\u5f80\u5f80": 4640,
  "\u2581...": 4641,
  "\u8f69\u8f95": 4642,
  "\u2581m\u1ecbt": 4643,
  "\u2581ch\u00e2m": 4644,
  "\u5229\u7528": 4645,
  "\u5a01\u80c1": 4646,
  "\u751f\u7075": 4647,
  "\u2581\u0110\u00e0i": 4648,
  "\u2581\u0111\u1eb3ng": 4649,
  "\u5230\u5904": 4650,
  "\u53d1\u5c55": 4651,
  "\u6218\u529b": 4652,
  "\u7684\u9ed1": 4653,
  "\u2581nh\u1eafn": 4654,
  "\u2581xo\u00e1y": 4655,
  "\u4e00\u65f6\u95f4": 4656,
  "\u6446\u624b": 4657,
  "\u6597\u6cd5": 4658,
  "\u71c3\u70e7": 4659,
  "\u2581C\u1ee9": 4660,
  "\u2581h\u00e3n": 4661,
  "\u8ddf\u524d": 4662,
  "\u968f\u4fbf": 4663,
  "\u2581D\u1ecb": 4664,
  "\u2581huy\u1ec7t": 4665,
  "\u4ee3\u4ef7": 4666,
  "\u652f\u6301": 4667,
  "\u865a\u5f71": 4668,
  "\u8fd9\u5ea7": 4669,
  "\u2581\u8fd9\u4e2a": 4670,
  "\u2581kh\u00e1t": 4671,
  "\u540e\u65b9": 4672,
  "\u589e\u52a0": 4673,
  "\u6761\u4ef6": 4674,
  "\u773c\u91cc": 4675,
  "\u4e00\u5757": 4676,
  "\u2581b\u1ecdc": 4677,
  "\u2581b\u1eefa": 4678,
  "\u2581Gi\u1ecdng": 4679,
  "\u4f11\u606f": 4680,
  "\u6838\u5fc3": 4681,
  "\u72b9\u5982": 4682,
  "\u2581khuy\u00ean": 4683,
  "\u4ea4\u4ee3": 4684,
  "\u9b54\u5b97": 4685,
  "\u4e86\u4e0d\u5c11": 4686,
  "\u2581m\u00faa": 4687,
  "\u2581qu\u1ea5y": 4688,
  "\u592a\u9633": 4689,
  "\u5973\u5b69": 4690,
  "\u5f7c\u6b64": 4691,
  "\u6307\u6325": 4692,
  "Ch\u00fang": 4693,
  "\u2581T\u00e0ng": 4694,
  "Gi": 4695,
  "\u53f8\u9a6c": 4696,
  "\u56fd\u7684": 4697,
  "\u2581Lung": 4698,
  "\u5c3d\u7ba1": 4699,
  "\u632f\u8863": 4700,
  "\u767e\u4e07": 4701,
  "\u8fdf\u7591": 4702,
  "\u2581tr\u00e2n": 4703,
  "\u2581l\u00f4": 4704,
  "\u70bc\u4e39\u5e08": 4705,
  "\u2581Xem": 4706,
  "\u65f6\u7684": 4707,
  "\u2581Tr\u1ecbnh": 4708,
  "\u4e0d\u8db3": 4709,
  "\u8ba9\u4f60": 4710,
  "\u91cd\u91cd": 4711,
  "\u2581gi\u1ecfi": 4712,
  "\u2581qu\u1eadn": 4713,
  "\u52a0\u5165": 4714,
  "\u6c47\u805a": 4715,
  "\u2581l\u01b0\u1ee1ng": 4716,
  "\u2581\u5e08\u6625": 4717,
  "\u4e00\u5251": 4718,
  "\u53f0\u4e0a": 4719,
  "\u5efa\u7b51": 4720,
  "\u5feb\u8981": 4721,
  "\u4e5f\u53ef\u4ee5": 4722,
  "\u4e39\u7530": 4723,
  "\u5f53\u573a": 4724,
  "\u2581v\u00f2": 4725,
  "\u2581h\u0103ng": 4726,
  "\u4ece\u672a": 4727,
  "\u773c\u7738": 4728,
  "\u8fdb\u653b": 4729,
  "\u2581t\u1ea3n": 4730,
  "\u2581Nh\u00e3n": 4731,
  "\u2581ngh\u1ec1": 4732,
  "\u5583\u5583": 4733,
  "\u767d\u8272": 4734,
  "\u957f\u5251": 4735,
  "\u2581n\u1ea5p": 4736,
  "\u2581\u6b64": 4737,
  "\u4e3b\u7684": 4738,
  "\u5f97\u4e0a": 4739,
  "\u2581\u1edbt": 4740,
  "\u2581\u0111\u1ea7m": 4741,
  "Ti\u1ec3u": 4742,
  "\u2581d\u1ea1o": 4743,
  "\u2581Tr\u01b0\u1edfng": 4744,
  "\u4e24\u9053": 4745,
  "\u6885\u632f\u8863": 4746,
  "\u7684\u90a3\u4e9b": 4747,
  "\u8fc7\u6765\u7684": 4748,
  "\u2581h\u00f2n": 4749,
  "\u751f\u610f": 4750,
  "\u2581l\u1edd": 4751,
  "\u5927\u5e08\u5144": 4752,
  "\u2581r\u00e8n": 4753,
  "\u5927\u65b9": 4754,
  "\u5996\u65cf": 4755,
  "\u8eab\u524d": 4756,
  "\u968f\u624b": 4757,
  "\u5f97\u5f88": 4758,
  "\u2581\u00e0o": 4759,
  "\u2581\u0110\u1ea5u": 4760,
  "\u2581gh\u00e9t": 4761,
  "\u2581l\u1ed3ng": 4762,
  "\u4e0d\u7b97": 4763,
  "\u5373\u5c06": 4764,
  "\u5fae\u7b11": 4765,
  "\u2581\u65b9\u9752": 4766,
  "\u2581Kh\u00f4n": 4767,
  "\u2581hi\u1ec7p": 4768,
  "\u4e0b\u65b9": 4769,
  "\u5934\u9876": 4770,
  "\u7684\u5c71": 4771,
  "\u8352\u539f": 4772,
  "\u2581T\u1ea1": 4773,
  "\u2581\u1ea3i": 4774,
  "\u2581\u73b0\u5728": 4775,
  "\u4e0b\u4e00\u523b": 4776,
  "\u51fa\u4e86\u4e00": 4777,
  "\u7684\u6a21\u6837": 4778,
  "\u2581hi\u1ebfn": 4779,
  "\u2581khi\u1ebfp": 4780,
  "\u6df7\u4e71": 4781,
  "\u51fa\u6765\u4e86": 4782,
  "\u8fd9\u4e00\u70b9": 4783,
  "\u2581T\u1ed5ng": 4784,
  "\u2581Kh\u1ea3i": 4785,
  "\u2581ng\u00f4n": 4786,
  "\u624b\u4e0a": 4787,
  "\u8001\u592b": 4788,
  "\u5f97\u5230\u4e86": 4789,
  "\u7684\u8eab\u4f53": 4790,
  "\u2581h\u00e0m": 4791,
  "\u2581Hu\u1ed1ng": 4792,
  "\u2581E": 4793,
  "\u2581\u4ee5": 4794,
  "\u6d88\u6563": 4795,
  "\u2581b\u00e3o": 4796,
  "\u2581\u0110\u1ed9t": 4797,
  "\u2581th\u1ea9m": 4798,
  "\u73b0\u5b9e": 4799,
  "\u8ba9\u5979": 4800,
  "\u60f3\u4e86\u60f3": 4801,
  "\u2581s\u00e9t": 4802,
  "\u2581Khi\u1ebfu": 4803,
  "\u2581\u79e6": 4804,
  "\u592b\u5b50": 4805,
  "\u751f\u673a": 4806,
  "\u8427\u51e1": 4807,
  "\u7684\u539f\u56e0": 4808,
  "\u7d27\u63a5\u7740": 4809,
  "\u2581xen": 4810,
  "\u89c4\u77e9": 4811,
  "\u2581Mi": 4812,
  "\u7b49\u7740": 4813,
  "\u89c1\u4e86": 4814,
  "\u2581oanh": 4815,
  "\u2581s\u1ea3nh": 4816,
  "\u2581ngoan": 4817,
  "\u5224\u65ad": 4818,
  "\u6545\u4e8b": 4819,
  "\u987a\u7740": 4820,
  "\u2581c\u1edb": 4821,
  "\u2581d\u00e3y": 4822,
  "\u2581nh\u1ecbp": 4823,
  "\u2581th\u1ee7ng": 4824,
  "\u5934\u4e0a": 4825,
  "\u664b\u5347": 4826,
  "\u901a\u5d16": 4827,
  "\u2581t\u01a1": 4828,
  "\u2581Duy": 4829,
  "\u2581d\u1ed7": 4830,
  "\u4e2d\u95f4": 4831,
  "\u6bcf\u4e2a": 4832,
  "\u9677\u5165": 4833,
  "\u2581Qu\u00e1n": 4834,
  "\u8fd8\u4f1a": 4835,
  "\u2581M\u1ef9": 4836,
  "\u2581T\u01b0\u1edbc": 4837,
  "\u2581l\u01b0\u1edbi": 4838,
  "\u5230\u7684": 4839,
  "\u4e9b\u4ec0\u4e48": 4840,
  "\u9690\u7ea6": 4841,
  "\u6700\u91cd\u8981": 4842,
  "\u1eebu": 4843,
  "\u53d7\u4f24": 4844,
  "\u6389\u4e86": 4845,
  "\u8001\u7237": 4846,
  "\u81ea\u4ece": 4847,
  "\u5dee\u4e0d\u591a": 4848,
  "\u2581m\u1ea1c": 4849,
  "u\u1ec7": 4850,
  "\u662f\u6709": 4851,
  "\u2581d\u1eddi": 4852,
  "\u5973\u513f": 4853,
  "\u2581v\u1ea3": 4854,
  "\u8fd9\u4ef6\u4e8b": 4855,
  "\u2581g\u1ee3n": 4856,
  "\u2581th\u00e1o": 4857,
  "\u771f\u5143": 4858,
  "\u5fae\u5fae\u4e00\u7b11": 4859,
  "\u5b8c\u6574": 4860,
  "\u731b\u7136": 4861,
  "\u836f\u6750": 4862,
  "\u4ed9\u57ce": 4863,
  "\u5927\u5c0f": 4864,
  "\u4e00\u822c\u7684": 4865,
  "\u662f\u4e00\u4e2a": 4866,
  "\u2581Ph\u00fac": 4867,
  "\u2581c\u00e0nh": 4868,
  "\u2581r\u1ee7": 4869,
  "\u2581\u0111\u1ee5c": 4870,
  "\u2581C\u00e1ch": 4871,
  "\u2581kh\u00f4n": 4872,
  "\u4e0d\u53bb": 4873,
  "\u4e4b\u7269": 4874,
  "\u2581\u8fd9\u4e9b": 4875,
  "\u4e60\u60ef": 4876,
  "\u610f\u5fd7": 4877,
  "\u2581\u7136\u800c": 4878,
  "\u7684\u8bf4\u9053": 4879,
  "\u2581d\u00f5i": 4880,
  "\u5728\u5927": 4881,
  "\u2581k\u1ec7": 4882,
  "\u6df7\u6c8c": 4883,
  "\u4e0a\u6b21": 4884,
  "\u4e2d\u592e": 4885,
  "\u547d\u8fd0": 4886,
  "\u8bc6\u6d77": 4887,
  "\u5148\u5929": 4888,
  "\u662f\u8981": 4889,
  "\u638c\u67dc": 4890,
  "\u7684\u60c5\u51b5\u4e0b": 4891,
  "as": 4892,
  "\u5343\u4e07": 4893,
  "\u2581v\u0129": 4894,
  "\u5473\u9053": 4895,
  "\u89c4\u5219": 4896,
  "\u2581v\u1eaby": 4897,
  "\u628a\u63e1": 4898,
  "\u6700\u5f3a": 4899,
  "\u674e\u5bb6": 4900,
  "\u738b\u6e0a": 4901,
  "H\u1eafn": 4902,
  "\u2581l\u0103m": 4903,
  "\u62d2\u7edd": 4904,
  "\u9053\u8def": 4905,
  "\u5982\u4eca\u7684": 4906,
  "\u2581l\u01b0\u1eddi": 4907,
  "\u7ea7\u7684": 4908,
  "\u9ad8\u7684": 4909,
  "\u4e0d\u9700\u8981": 4910,
  "\u2581L\u0129nh": 4911,
  "\u2581\u2013": 4912,
  "\u6084\u6084": 4913,
  "\u884c\u8d70": 4914,
  "\u53f9\u4e86\u53e3\u6c14": 4915,
  "li": 4916,
  "\u5dee\u8ddd": 4917,
  "\u7559\u4e0b\u7684": 4918,
  "\u2581n\u1ea1p": 4919,
  "\u2581Ng\u00e0i": 4920,
  "\u2581Tuy\u00ean": 4921,
  "\u2581d\u1ea1": 4922,
  "\u771f\u8981": 4923,
  "\u5fae\u5fae\u4e00": 4924,
  "\u2581Ng\u00e0y": 4925,
  "\u4e00\u5e74": 4926,
  "\u4ef0\u5584": 4927,
  "\u56fd\u5e08": 4928,
  "\u5927\u519b": 4929,
  "\u9664\u975e": 4930,
  "\u2581Thi\u1ec3m": 4931,
  "\u2581thi\u1ec7u": 4932,
  "\u4e00\u5f20": 4933,
  "\u4ed9\u754c": 4934,
  "\u636e\u8bf4": 4935,
  "\u4e00\u76f4\u5728": 4936,
  "\u5341\u4e09": 4937,
  "\u2581l\u1ee1": 4938,
  "\u2581\u0111\u1edd": 4939,
  "\u2581M\u00e3n": 4940,
  "\u2581t\u00e1o": 4941,
  "\u4e0a\u4eba": 4942,
  "\u2581B\u00e1": 4943,
  "\u601d\u7d22": 4944,
  "\u2581\u0110\u1ed9n": 4945,
  "\u4e0d\u50cf": 4946,
  "\u628a\u4ed6": 4947,
  "\u6311\u6218": 4948,
  "\u2581Ha": 4949,
  "\u2581t\u00fay": 4950,
  "\u2581kho\u00e1i": 4951,
  "\u6bd4\u8d77": 4952,
  "\u2581qu\u1ea7y": 4953,
  "\u2581ch\u00e0ng": 4954,
  "\u4eac\u90fd": 4955,
  "\u51b7\u7b11": 4956,
  "\u7a7f\u8fc7": 4957,
  "\u81ea\u4fe1": 4958,
  "\u5251\u5b97": 4959,
  "\u53ea\u597d": 4960,
  "\u2581d\u1ecbu": 4961,
  "\u2581Mu\u1ed1n": 4962,
  "\u7406\u4f1a": 4963,
  "\u6bd5\u7adf\u662f": 4964,
  "\u7247\u523b\u540e": 4965,
  "\u5bf9\u4e86": 4966,
  "\u7ecf\u8109": 4967,
  "\u81f3\u6781": 4968,
  "\u8fd9\u70b9": 4969,
  "\u2581x\u00f3a": 4970,
  "\u2581Ph\u1ea1m": 4971,
  "\u2581Ki\u00eau": 4972,
  "\u7b49\u7b49": 4973,
  "\u66f4\u4f55\u51b5": 4974,
  "\u2581c\u1eedu": 4975,
  "Trong": 4976,
  "\u2581H\u1eb1ng": 4977,
  "\u8fb9\u7684": 4978,
  "\u9762\u5bb9": 4979,
  "\u2581B\u1ed3": 4980,
  "\u4e0d\u5fc5": 4981,
  "\u6df1\u6df1": 4982,
  "\u7a7f\u7740": 4983,
  "\u2581B\u1ea1t": 4984,
  "\u672c\u6e90": 4985,
  "\u6c38\u8fdc": 4986,
  "\u2581tr\u00fat": 4987,
  "\u2581\u0110\u00eam": 4988,
  "\u2581kho\u00e1ng": 4989,
  "\u6d3b\u7740": 4990,
  "\u2581c\u1ed1ng": 4991,
  "\u2581ki\u00eang": 4992,
  "\u2581\u9f50\u4f11": 4993,
  "\u4e86\u5f88\u591a": 4994,
  "\u2581c\u01b0\u1ee3c": 4995,
  "\u4e4b\u7c7b": 4996,
  "\u4e4b\u9053": 4997,
  "\u4fee\u4ed9\u754c": 4998,
  "\u7f57\u5929\u4f1a": 4999,
  "\u2581r\u1ed9n": 5000,
  "\u2581l\u01b0\u1ee3c": 5001,
  "\u2581n\u00f4ng": 5002,
  "\u2581th\u00e1m": 5003,
  "\u62db\u547c": 5004,
  "\u968f\u5373": 5005,
  "\u2581b\u00f9n": 5006,
  "\u7684\u610f\u601d": 5007,
  "\u2581C\u00e1t": 5008,
  "\u2581h\u1eb9n": 5009,
  "\u2581kh\u1ed1c": 5010,
  "\u6765\u770b": 5011,
  "\u95fb\u8a00": 5012,
  "\u2581\u0110i\u1ec1n": 5013,
  "\u6293\u4f4f": 5014,
  "\u8fd4\u56de": 5015,
  "\u9686\u5e86": 5016,
  "\u2581ti\u1ec7c": 5017,
  "\u2581ch\u1eedng": 5018,
  "\u7684\u4f4d\u7f6e": 5019,
  "\u54ac\u7259": 5020,
  "\u9b54\u9053": 5021,
  "\u9b3c\u7384\u5b97": 5022,
  "\u95e8\u5f1f\u5b50": 5023,
  "\u2581phi\u00ean": 5024,
  "\u4e0e\u4ed6": 5025,
  "\u4eba\u65cf": 5026,
  "\u4f60\u8bf4": 5027,
  "\u6b64\u5904": 5028,
  "\u2581\u00f3c": 5029,
  "\u2581tho\u1ea3i": 5030,
  "\u534a\u6b65": 5031,
  "\u2581m\u00eanh": 5032,
  "\u2581Ng\u01b0\u1ee1ng": 5033,
  "\u540e\u9000": 5034,
  "\u5929\u673a": 5035,
  "\u4e4b\u524d\u7684": 5036,
  "\u5728\u7a7a\u4e2d": 5037,
  "\u89c1\u8bc6": 5038,
  "\u2581T\u1ebf": 5039,
  "\u2581X\u00e0": 5040,
  "\u2581h\u1ed1i": 5041,
  "\u2581t\u1ea9y": 5042,
  "\u2581ph\u1ee5ng": 5043,
  "\u65b9\u4fbf": 5044,
  "\u6bbf\u4e0b": 5045,
  "\u2581\u0111i\u1ec7p": 5046,
  "\u5bb6\u4e3b": 5047,
  "\u7684\u8138": 5048,
  "\u90a3\u4e48\u591a": 5049,
  "\u4e5f\u88ab": 5050,
  "\u4f20\u9001": 5051,
  "\u2581T\u1ea7m": 5052,
  "\u4f1a\u957f": 5053,
  "\u53d1\u6325": 5054,
  "\u4e3a\u4e3b": 5055,
  "\u67d0\u4e9b": 5056,
  "\u957f\u5b89\u57ce": 5057,
  "\u2581Mi\u00eau": 5058,
  "\u2581ti\u1ec1m": 5059,
  "\u4e7e\u5764": 5060,
  "\u6b66\u5668": 5061,
  "\u7206\u70b8": 5062,
  "\u51ed\u501f": 5063,
  "\u62ff\u7740": 5064,
  "\u2581\u0110\u1ec1": 5065,
  "\u2581tro": 5066,
  "\u0129a": 5067,
  "\u4e0d\u5927": 5068,
  "\u4e5e\u5e7d": 5069,
  "\u7684\u6c34": 5070,
  "\u2581r\u1ea1p": 5071,
  "\u7f13\u6162": 5072,
  "\u2581\u0110\u0103ng": 5073,
  "\u2581\u4ed6\u7684": 5074,
  "\u2581khen": 5075,
  "\u6ee1\u610f": 5076,
  "\u77ed\u65f6\u95f4": 5077,
  "\u2581M\u1eadt": 5078,
  "\u3002......": 5079,
  "\u4ef7\u503c": 5080,
  "\u5c0f\u59d0": 5081,
  "\u65ad\u4e86": 5082,
  "\u0110\u1ea1o": 5083,
  "\u2581v\u1edd": 5084,
  "Ho": 5085,
  "\u5251\u6cd5": 5086,
  "\u5c11\u7237": 5087,
  "\u6536\u83b7": 5088,
  "\u2581r\u00e2u": 5089,
  "\u2581Lo\u1ea1i": 5090,
  "\u58eb\u5175": 5091,
  "\u5916\u754c": 5092,
  "\u8054\u624b": 5093,
  "\u2581to\u00e1t": 5094,
  "\u7834\u788e": 5095,
  "\u9053\u57fa": 5096,
  "\u4e91\u4e5e\u5e7d": 5097,
  "\u6050\u6016\u7684": 5098,
  "\u767d\u5b50\u8572": 5099,
  "\u770b\u4e86\u770b": 5100,
  "\u2581ng\u00f5": 5101,
  "\u2581phi\u00eau": 5102,
  "\u7ef4\u6301": 5103,
  "\u2581Kh\u01b0": 5104,
  "\u2581l\u1eb7p": 5105,
  "\u2581m\u00f3ng": 5106,
  "\u6b63\u5f0f": 5107,
  "\u4f60\u8981": 5108,
  "\u5728\u8fd9\u65f6": 5109,
  "\u2581l\u1ecdt": 5110,
  "\u4e66\u7c4d": 5111,
  "\u4ecb\u7ecd": 5112,
  "\u7684\u95ee\u9898": 5113,
  "\u2581Di\u00eau": 5114,
  "\u6fc0\u52a8": 5115,
  "\u2581h\u1ed7": 5116,
  "\u6216\u8005\u8bf4": 5117,
  "\u8bf4\u51fa": 5118,
  "\u2581h\u1ebb": 5119,
  "\u6323\u624e": 5120,
  "\u65a9\u6740": 5121,
  "\u7684\u9752": 5122,
  "\u2581T\u1ef1a": 5123,
  "\u4e13\u95e8": 5124,
  "\u4ed6\u4e0d": 5125,
  "\u5ba2\u6c14": 5126,
  "\u6f06\u9ed1": 5127,
  "\u80f8\u53e3": 5128,
  "\u95ea\u91d1": 5129,
  "\u2581ru\u1ed9t": 5130,
  "\u5f25\u6f2b": 5131,
  "\u4e5f\u4e0d\u80fd": 5132,
  "\u627e\u5230\u4e86": 5133,
  "\u2581qu\u1ef9": 5134,
  "\u2581C\u01b0\u1eddng": 5135,
  "\u2581g\u1ea1t": 5136,
  "\u5306\u5306": 5137,
  "\u987a\u5229": 5138,
  "\u4ec0\u4e48\u65f6\u5019": 5139,
  "\u2581ho\u1ea1i": 5140,
  "\u2581Phi\u00ean": 5141,
  "\u2581thong": 5142,
  "\u5f88\u5c11": 5143,
  "\u2581men": 5144,
  "\u2581m\u1ea3ng": 5145,
  "\u4e03\u516b": 5146,
  "\u540d\u7684": 5147,
  "\u6211\u60f3": 5148,
  "\u65cb\u5373": 5149,
  "\u773c\u4e0b": 5150,
  "\u2581ch\u00eanh": 5151,
  "\u2581\u2014\u2014": 5152,
  "\u2581\u1ed1ng": 5153,
  "\u2581Khang": 5154,
  "\u53e4\u602a": 5155,
  "\u5468\u5dcd": 5156,
  "\u2581m\u1ed9c": 5157,
  "\u677e\u4e86\u53e3\u6c14": 5158,
  "\u4e43\u81f3": 5159,
  "\u5185\u5fc3": 5160,
  "\u5c3d\u6570": 5161,
  "L\u00e3o": 5162,
  "\u2581d\u1ee5c": 5163,
  "\u2581xua": 5164,
  "\u2581\u0111\u00e1o": 5165,
  "\u2581Chi\u00eam": 5166,
  "\u540e\u8005": 5167,
  "\u63a5\u8fc7": 5168,
  "\u665a\u4e0a": 5169,
  "\u6bc1\u706d": 5170,
  "\u2581b\u1edbt": 5171,
  "\u8fd9\u4e2a\u4e16\u754c": 5172,
  "\u63d0\u4f9b": 5173,
  "\u8fd9\u51e0": 5174,
  "\u2581\u674e\u51e1": 5175,
  "\u2581c\u1ed1c": 5176,
  "\u4e0d\u5f97\u4e0d": 5177,
  "\u2581Ch\u00fac": 5178,
  "\u2581ngon": 5179,
  "\u2581nh\u1eadt": 5180,
  "\u2581\u5c31": 5181,
  "\u522b\u8bf4": 5182,
  "\u50a8\u7269\u888b": 5183,
  "\u2581h\u1eb9p": 5184,
  "\u2581r\u00f3t": 5185,
  "\u2581xu\u00f4i": 5186,
  "\u8fd9\u9053": 5187,
  "\u2581h\u00f4ng": 5188,
  "\u2581J": 5189,
  "\u4ef7\u683c": 5190,
  "\u6d53\u90c1": 5191,
  "\u2581g\u00f5": 5192,
  "\u2581T\u00e0i": 5193,
  "\u2581Ki\u1ec1u": 5194,
  "\u2581\u1ee8": 5195,
  "\u611f\u609f": 5196,
  "\u7684\u8001": 5197,
  "\u2581Kh\u1ea5t": 5198,
  "\u4f55\u65f6": 5199,
  "\u6765\u5f97": 5200,
  "\u9996\u5148": 5201,
  "\u4ed6\u5df2\u7ecf": 5202,
  "\u2581b\u00e1c": 5203,
  "\u2581b\u00e1m": 5204,
  "\u2581lau": 5205,
  "\u2581v\u00e3n": 5206,
  "\u653e\u4e0b": 5207,
  "\u8db3\u8db3": 5208,
  "\u2581\u5b8b\u4e9a": 5209,
  "\u5728\u610f": 5210,
  "\u6211\u8981": 5211,
  "\u2581Kh\u00ea": 5212,
  "\u2581M\u01b0u": 5213,
  "\u2581\u82e5": 5214,
  "\u60f3\u5fc5": 5215,
  "\u1ed9p": 5216,
  "\u4e0d\u6b7b": 5217,
  "\u7ec4\u7ec7": 5218,
  "\u2581m\u00e1t": 5219,
  "\u2581Tr\u1ea1m": 5220,
  "\u4ea4\u6d41": 5221,
  "\u505a\u4e86": 5222,
  "Ngh": 5223,
  "\u2581T\u1ea5n": 5224,
  "\u2581k\u1ecbt": 5225,
  "\u2581kh\u1ef1ng": 5226,
  "\u5fc3\u60f3": 5227,
  "\u662f\u4ee5": 5228,
  "\u91ca\u653e": 5229,
  "\u5730\u770b\u7740": 5230,
  "\u606d\u656c": 5231,
  "\u96be\u5f97": 5232,
  "\u65e0\u9650": 5233,
  "\u4e00\u4e2a\u5c0f": 5234,
  "\u5374\u53c8": 5235,
  "\u5ffd\u7684": 5236,
  "\u2581S\u00e1ch": 5237,
  "\u2581\u0110\u00e1ng": 5238,
  "om": 5239,
  "\u2581\u65b9": 5240,
  "\u53e4\u5723": 5241,
  "\u548c\u4ed6": 5242,
  "\u5728\u5c71": 5243,
  "\u662f\u5426": 5244,
  "\u6b66\u8005": 5245,
  "\u674e\u66e6\u660e": 5246,
  "\u2581t\u0103m": 5247,
  "\u4f17\u591a": 5248,
  "\u5b9b\u82e5": 5249,
  "\u6027\u7684": 5250,
  "\u660e\u4eae": 5251,
  "\u4e09\u5927": 5252,
  "\u5408\u9002": 5253,
  "\u7a7a\u6c14": 5254,
  "Cho": 5255,
  "\u2581thi\u1ebfp": 5256,
  "N\u00f3i": 5257,
  "\u8bc1\u660e": 5258,
  "\u592a\u5927": 5259,
  "\u867d\u8bf4": 5260,
  "\u8fd8\u597d": 5261,
  "\u2581n\u1ed7": 5262,
  "\u2581t\u1ea5c": 5263,
  "\u2581\u0111\u00e0m": 5264,
  "\u53e6\u4e00": 5265,
  "\u2581m\u00f2n": 5266,
  "\u5927\u95e8": 5267,
  "\u7834\u4e86": 5268,
  "\u9053\u5fc3": 5269,
  "\u2581th\u1ee5c": 5270,
  "\u7ea2\u8863": 5271,
  "\u8f88\u5b50": 5272,
  "\u4e5f\u77e5\u9053": 5273,
  "\u2581\u0111\u1eabm": 5274,
  "\u4e5f\u90fd": 5275,
  "\u4f20\u95fb": 5276,
  "\u597d\u5728": 5277,
  "\u8b66\u60d5": 5278,
  "\u2581g\u00e0": 5279,
  "\u7684\u770b\u7740": 5280,
  "\u2581Sao": 5281,
  "\u2581Binh": 5282,
  "\u8349\u539f": 5283,
  "\u90e8\u961f": 5284,
  "\u2581r\u00edt": 5285,
  "\u53d7\u4e86": 5286,
  "\u6211\u4e0d": 5287,
  "\u2581nho": 5288,
  "\u2581Th\u00e1c": 5289,
  "\u2581v\u0103ng": 5290,
  "\u4e4b\u8f88": 5291,
  "\u4e94\u5341": 5292,
  "\u5206\u522b": 5293,
  "\u2581\u1ea3m": 5294,
  "\u2581Song": 5295,
  "\u6570\u767e": 5296,
  "\u600e\u4e48\u56de\u4e8b": 5297,
  "\u2581Xung": 5298,
  "ey": 5299,
  "\u4e2d\u54c1": 5300,
  "\u4fbf\u80fd": 5301,
  "\u80a9\u8180": 5302,
  "\u2581thi\u1ec7p": 5303,
  "\u2581............": 5304,
  "\u4e00\u9897": 5305,
  "\u2581\u9648\u957f\u751f": 5306,
  "\u5173\u6ce8": 5307,
  "\u5bb6\u4eba": 5308,
  "\u2581\u53ea\u662f": 5309,
  "\u2581\u968f\u7740": 5310,
  "\u4e5f\u53ea\u662f": 5311,
  "\u600e\u4e48\u4f1a": 5312,
  "\u7684\u4eba\u7269": 5313,
  "\u4e5f\u4e0d\u53ef\u80fd": 5314,
  "\u2581thu\u1eabn": 5315,
  "\u2581Qua": 5316,
  "\u2581v\u00e1c": 5317,
  "\u5bf9\u9762": 5318,
  "\u624b\u4e00": 5319,
  "\u660a\u5929": 5320,
  "\u9886\u57df": 5321,
  "\u5927\u591a\u6570": 5322,
  "\u7684\u4fee\u70bc": 5323,
  "\u8fd9\u4e1c\u897f": 5324,
  "\u2581t\u01b0\u1edbc": 5325,
  "\u534a\u5929": 5326,
  "\u6765\u4e0d\u53ca": 5327,
  "\u4e00\u6123": 5328,
  "\u70bc\u4f53": 5329,
  "\u8bf4\u5230": 5330,
  "\u53d1\u73b0\u4e86": 5331,
  "Th\u1eadt": 5332,
  "\u0110i": 5333,
  "\u4e92\u76f8": 5334,
  "\u4ed6\u624d": 5335,
  "\u575a\u5b9a": 5336,
  "\u9053\u95e8": 5337,
  "\u2581d\u1ea7u": 5338,
  "\u2581\u0110ang": 5339,
  "\u4e00\u51fb": 5340,
  "\u5251\u610f": 5341,
  "\u57ce\u4e3b": 5342,
  "\u57f9\u517b": 5343,
  "\u5934\u6765": 5344,
  "\u5a18\u5a18": 5345,
  "\u695a\u5357": 5346,
  "\u6bd4\u8bd5": 5347,
  "\u600e\u4e48\u529e": 5348,
  "\u2581ch\u01b0\u1edbng": 5349,
  "\u4ed6\u548c": 5350,
  "\u4fbf\u4f1a": 5351,
  "\u5408\u9053": 5352,
  "\u9ad8\u5174": 5353,
  "\u2581mi\u1ebfu": 5354,
  "\u54ea\u6015\u662f": 5355,
  "\u5bdf\u89c9\u5230": 5356,
  "\u2581t\u00e0ng": 5357,
  "\u62ff\u51fa": 5358,
  "\u4e5f\u4e0d\u77e5": 5359,
  "\u6ca1\u529e\u6cd5": 5360,
  "\u2581Hu\u1ec7": 5361,
  "\u2581gan": 5362,
  "\u2581n\u00e3o": 5363,
  "\u8fd8\u5f97": 5364,
  "Tr\u01b0\u1edbc": 5365,
  "\u2581r\u1ea3nh": 5366,
  "\u2581tu\u1ea5n": 5367,
  "\u2581\u0110i\u1ec7p": 5368,
  "\u2581\u0111\u1ee5ng": 5369,
  "\u540e\u7eed": 5370,
  "\u5a01\u80fd": 5371,
  "\u5b50\u4e0a": 5372,
  "\u64cd\u63a7": 5373,
  "\u2581\u81f3\u4e8e": 5374,
  "\u4e0d\u5df2": 5375,
  "\u541b\u5b50": 5376,
  "\u5c06\u6765": 5377,
  "\u2581Ti": 5378,
  "\u2581Ty": 5379,
  "\u2581tr\u00f9m": 5380,
  "at": 5381,
  "\u5e73\u65f6": 5382,
  "\u2581g\u00f2": 5383,
  "\u53ef\u4e0d\u662f": 5384,
  "\u4f4e\u58f0": 5385,
  "\u51b0\u51b7": 5386,
  "\u5343\u5e7b": 5387,
  "\u5360\u636e": 5388,
  "\u635f\u5931": 5389,
  "\u795e\u706b": 5390,
  "\u2581Gi\u00e1m": 5391,
  "\u2581r\u1ed7ng": 5392,
  "\u2581D\u01b0\u1eddng": 5393,
  "\u662f\u554a": 5394,
  "\u76f8\u5173": 5395,
  "\u963b\u6b62": 5396,
  "\u2581Bi\u1ebft": 5397,
  "\u4e0d\u89e3": 5398,
  "\u5e1d\u541b": 5399,
  "\u8863\u670d": 5400,
  "\u5728\u4ed6\u7684": 5401,
  "\u2581M\u01b0\u1eddi": 5402,
  "\u5b8c\u4e86": 5403,
  "\u8042\u79bb": 5404,
  "\u8fde\u7eed": 5405,
  "\u2581pha": 5406,
  "\u56db\u5341": 5407,
  "\u7684\u65b9\u5411": 5408,
  "\u770b\u8fc7\u6765": 5409,
  "\u2581k\u00ecm": 5410,
  "\u2581Gi\u1eefa": 5411,
  "\u5e72\u8106": 5412,
  "\u6837\u7684": 5413,
  "\u6b64\u6b21": 5414,
  "\u7075\u5668": 5415,
  "\u5927\u957f\u8001": 5416,
  "\u2581\u4e0d": 5417,
  "\u5429\u5490": 5418,
  "\u671d\u5ef7": 5419,
  "\u6c14\u52bf": 5420,
  "\u6d41\u6c34": 5421,
  "\u4e5d\u5e7d\u5927\u5e1d": 5422,
  "\u4fee\u9053": 5423,
  "\u542c\u89c1": 5424,
  "\u6211\u4f1a": 5425,
  "\u6a21\u7cca": 5426,
  "\u7834\u574f": 5427,
  "\u843d\u843d": 5428,
  "\u7684\u4e00\u58f0": 5429,
  "\u7ea7\u522b\u7684": 5430,
  "\u2581h\u00e1t": 5431,
  "\u2581t\u1eedu": 5432,
  "\u2581khi\u1ebft": 5433,
  "\u4e0a\u65b9": 5434,
  "\u884c\u4e8b": 5435,
  "\u8eab\u5b50": 5436,
  "\u4e86\u51fa\u53bb": 5437,
  "\u5931\u53bb\u4e86": 5438,
  "\u4e00\u5c42": 5439,
  "\u4e0b\u54c1": 5440,
  "\u4e16\u5bb6": 5441,
  "\u4f46\u5374": 5442,
  "\u8bb0\u5f55": 5443,
  "C\u0169ng": 5444,
  "\u5143\u529b": 5445,
  "\u5408\u4f5c": 5446,
  "\u8fb9\u7f18": 5447,
  "\u5b98\u5458": 5448,
  "\u767d\u7684": 5449,
  "\u7fa4\u5c9b": 5450,
  "\u2581r\u1ed7i": 5451,
  "??": 5452,
  "\u5927\u80fd": 5453,
  "\u5f00\u8f9f": 5454,
  "\u2581d\u00e8": 5455,
  "\u6240\u8c13\u7684": 5456,
  "\u2581Ban": 5457,
  "\u5c0a\u8005": 5458,
  "\u6781\u5927": 5459,
  "\u2581d\u1ea1i": 5460,
  "\u811a\u4e0b": 5461,
  "\u8868\u793a": 5462,
  "\u9707\u64bc": 5463,
  "ic": 5464,
  "\u627f\u8ba4": 5465,
  "\u2581\u5c31\u5728": 5466,
  "\u4e5f\u4e0d\u6562": 5467,
  "\u2581s\u1ea3ng": 5468,
  "\u2581than": 5469,
  "\u4e0d\u5b9a": 5470,
  "\u4ec0\u5e7a": 5471,
  "\u2581Th\u00edch": 5472,
  "\u7a33\u5b9a": 5473,
  "Xem": 5474,
  "\u4e0d\u5bb9\u6613": 5475,
  "\u2581H\u00f2a": 5476,
  "\u2581h\u1ee9a": 5477,
  "\u2581\u01b0\u1edbt": 5478,
  "\u2581nh\u1ecdn": 5479,
  "\u2581tuy\u1ec3n": 5480,
  "\u2581\u9648": 5481,
  "\u4e0d\u5b89": 5482,
  "\u65e5\u540e": 5483,
  "\u6ce8\u89c6": 5484,
  "\u6df1\u6e0a": 5485,
  "\u2581h\u1ea3": 5486,
  "\u2581\u770b\u7740": 5487,
  "\u5e74\u8f7b\u4eba": 5488,
  "\u2581Ho\u00e0nh": 5489,
  "\u4f46\u8fd9": 5490,
  "\u611f\u77e5": 5491,
  "\u6bbf\u4e3b": 5492,
  "\u7684\u4ed6": 5493,
  "\u2581\u0111\u1ebfm": 5494,
  "\u2581\u00da": 5495,
  "\u53f9\u606f": 5496,
  "\u5411\u4e86": 5497,
  "\u666f\u8c61": 5498,
  "\u751f\u51fa": 5499,
  "\u90fd\u53ef\u4ee5": 5500,
  "\u4e00\u526f": 5501,
  "\u4eba\u5458": 5502,
  "\u4f3c\u7684": 5503,
  "\u5c31\u5c06": 5504,
  "\u5fd8\u4e86": 5505,
  "\u672c\u4e8b": 5506,
  "\u7269\u54c1": 5507,
  "\u2581D\u00e3": 5508,
  "\u2581\u1ee7i": 5509,
  "\u90fd\u5df2\u7ecf": 5510,
  "\u2581C\u1ea9u": 5511,
  "\u2581Ph\u00e1i": 5512,
  "\u2581s\u00e0ng": 5513,
  "\u98ce\u66b4": 5514,
  "\u7684\u7075\u9b42": 5515,
  "\u8fd9\u4ef6\u4e8b\u60c5": 5516,
  "\u6301\u7eed": 5517,
  "\u76f8\u540c": 5518,
  "\u88ab\u6253": 5519,
  "\u2581x\u00e0": 5520,
  "\u60f3\u4e0d\u5230": 5521,
  "\u2581s\u01b0\u1eddn": 5522,
  "\u5c31\u89c1": 5523,
  "\u671b\u53bb": 5524,
  "\u7684\u5883\u754c": 5525,
  "\u7684\u5c31\u662f": 5526,
  "\u7684\u90a3\u4e2a": 5527,
  "\u2581g\u00e1c": 5528,
  "\u2581Gi\u1ed1ng": 5529,
  "\u1eb1n": 5530,
  "\u62b5\u6321": 5531,
  "\u9ed1\u8863": 5532,
  "\u2581K\u1ebf": 5533,
  "\u2581v\u1eb9o": 5534,
  "\u4e00\u6839": 5535,
  "\u4e09\u5e74": 5536,
  "\u5f88\u4e45": 5537,
  "\u73a9\u610f": 5538,
  "\u7d27\u7d27": 5539,
  "Th\u1ebf": 5540,
  "\u5df2\u662f": 5541,
  "\u7136\u7684": 5542,
  "\u805a\u96c6": 5543,
  "\u8bb0\u8f7d": 5544,
  "\u666e\u901a\u7684": 5545,
  "\u2581W": 5546,
  "\u503c\u5f97": 5547,
  "\u5373\u4f7f": 5548,
  "\u6700\u597d\u7684": 5549,
  "\u2581\u0111\u1eafp": 5550,
  "\u4e3a\u9996": 5551,
  "\u51fa\u58f0": 5552,
  "\u5904\u4e8e": 5553,
  "\u8d6b\u7136": 5554,
  "T\u1ea1i": 5555,
  "\u2581B\u00ed": 5556,
  "\u2581r\u0169": 5557,
  "\u2581s\u1ed1t": 5558,
  "\u4ed6\u5bf9": 5559,
  "\u6536\u56de": 5560,
  "\u7684\u540d": 5561,
  "\u7741\u5f00": 5562,
  "\u2581\u1ea4n": 5563,
  "\u5f88\u6709": 5564,
  "\u4e0a\u4e0b": 5565,
  "\u6bcf\u5929": 5566,
  "\u7684\u795e\u60c5": 5567,
  "\u2581Hi\u1ec1n": 5568,
  "\u2581Chi\u1ebft": 5569,
  "\u672c\u5c31": 5570,
  "\u7684\u5bf9": 5571,
  "\u77ed\u77ed": 5572,
  "\u8fc7\u7a0b\u4e2d": 5573,
  "\u2581Gi\u00e1ng": 5574,
  "\u4e4b\u58f0": 5575,
  "\u7384\u5929\u5b97": 5576,
  "\u2581\u1ee8ng": 5577,
  "\u2581\u01b0": 5578,
  "\u4e2d\u5fc3": 5579,
  "\u5c11\u9633": 5580,
  "\u62f1\u624b": 5581,
  "\u4e09\u5929": 5582,
  "\u7740\u6025": 5583,
  "\u2581ng\u1ee5y": 5584,
  "\u56db\u5904": 5585,
  "\u90a3\u4eba": 5586,
  "\u9707\u52a8": 5587,
  "\u4ed6\u73b0\u5728": 5588,
  "\u788e\u7247": 5589,
  "\u7f18\u6545": 5590,
  "\u89c1\u7684": 5591,
  "\u4ed6\u77e5\u9053": 5592,
  "\u8fd8\u4ee5\u4e3a": 5593,
  "\u2581ch\u0103ng": 5594,
  "\u4e07\u5e74": 5595,
  "\u53bb\u627e": 5596,
  "\u5c34\u5c2c": 5597,
  "\u6325\u624b": 5598,
  "\u6545\u610f": 5599,
  "\u7edf\u9886": 5600,
  "\u6709\u4e00\u4e2a": 5601,
  "\u2581nh\u1ea1y": 5602,
  "\u54ea\u4e2a": 5603,
  "\u79bb\u5c71": 5604,
  "\u7a0d\u5fae": 5605,
  "\u2581k\u1ebd": 5606,
  "\u2581\u0110\u1eb1ng": 5607,
  "\u4e00\u51fa": 5608,
  "\u53ae\u6740": 5609,
  "\u5c55\u5f00": 5610,
  "\u2581ng\u00e1c": 5611,
  "\u2581\u0111inh": 5612,
  "\u505c\u6b62": 5613,
  "\u2581n\u1ec3": 5614,
  "\u4ed6\u53c8": 5615,
  "\u5927\u534a": 5616,
  "\u6628\u5929": 5617,
  "\u7ecf\u5e38": 5618,
  "\u4e0d\u660e\u767d": 5619,
  "\u8981\u77e5\u9053": 5620,
  "\u2581Nay": 5621,
  "\u2581b\u1ea5y": 5622,
  "\u2581h\u00e1n": 5623,
  "\u2581th\u1ee3": 5624,
  "\u2581ph\u00e1o": 5625,
  "\u2581Doanh": 5626,
  "\u2581Qu\u00e1ch": 5627,
  "\u4eb2\u773c": 5628,
  "\u5999\u6e5b": 5629,
  "\u6108\u53d1": 5630,
  "\u6bcf\u6b21": 5631,
  "\u8fdb\u5165\u4e86": 5632,
  "\u2581tu\u00f4n": 5633,
  "\u2581giang": 5634,
  "\u5c71\u95e8": 5635,
  "\u6606\u4ed1": 5636,
  "\u66b4\u9732": 5637,
  "\u7075\u865a\u57ce": 5638,
  "\u2581\u4f60": 5639,
  "\u4eac\u57ce": 5640,
  "\u5229\u76ca": 5641,
  "\u534a\u70b9": 5642,
  "\u6cd5\u95e8": 5643,
  "\u7b54\u6848": 5644,
  "\u2581\u77f3\u8f69": 5645,
  "\u8fd9\u4e24\u4e2a": 5646,
  "\u7409\u7483": 5647,
  "\u7684\u6218": 5648,
  "\u7b26\u7b93": 5649,
  "\u82cf\u79bb": 5650,
  "\u2581ng\u1ee5c": 5651,
  "ll": 5652,
  "\u51e0\u5341": 5653,
  "\u5251\u9635": 5654,
  "\u542c\u5f97": 5655,
  "\u7686\u662f": 5656,
  "\u80af\u5b9a\u662f": 5657,
  "\u2581\u0111\u1eafm": 5658,
  "\u2581Kh\u1eafc": 5659,
  "\u2581nh\u00e1t": 5660,
  "\u2581tr\u00eau": 5661,
  "\u5343\u91cc": 5662,
  "\u547c\u5578": 5663,
  "\u5c40\u52bf": 5664,
  "\u62b1\u7740": 5665,
  "\u6797\u67ab": 5666,
  "\u6d3e\u4eba": 5667,
  "\u0110\u1eebng": 5668,
  "\u2581\u0110\u1eebng": 5669,
  "\u4ea4\u6613": 5670,
  "\u5927\u4e8b": 5671,
  "\u1ea8n": 5672,
  "\u62a4\u536b": 5673,
  "M\u1ed9t": 5674,
  "\u2581R\u00f5": 5675,
  "Th\u1ea7n": 5676,
  "\u2581khung": 5677,
  "\u540d\u4e3a": 5678,
  "\u7684\u597d": 5679,
  "\u82b1\u8d39": 5680,
  "\u8fd9\u6761": 5681,
  "\u2581L\u00ea": 5682,
  "\u4f24\u53e3": 5683,
  "\u2581T\u00ea": 5684,
  "\u2581h\u1ea7m": 5685,
  "\u2581m\u00e0i": 5686,
  "\u504f\u504f": 5687,
  "\u51b7\u51b7": 5688,
  "\u573a\u666f": 5689,
  "\u65e0\u6240": 5690,
  "\u2581n\u00f4": 5691,
  "\u2581th\u1edd": 5692,
  "\u2581B\u1ed3ng": 5693,
  "\u2581Ni\u00ean": 5694,
  "\u2581ch\u1eedi": 5695,
  "\u4e00\u4e00": 5696,
  "\u5e7f\u573a": 5697,
  "\u610f\u5473\u7740": 5698,
  "\u2581l\u00fat": 5699,
  "\u2581khi\u1ebfu": 5700,
  "\u7684\u6218\u6597": 5701,
  "\u8138\u4e0a\u7684": 5702,
  "\u2581Bi\u00ean": 5703,
  "\u4ed9\u5e1d": 5704,
  "\u542c\u95fb": 5705,
  "\u5728\u573a": 5706,
  "\u5929\u541b": 5707,
  "\u5b9e\u9a8c": 5708,
  "\u5c40\u9762": 5709,
  "\u62cd\u5356": 5710,
  "\u6e05\u98ce": 5711,
  "\u90fd\u65e0\u6cd5": 5712,
  "\u2581H\u00e1n": 5713,
  "\u2581L\u00e0m": 5714,
  "\u2581t\u1ed9t": 5715,
  "\u6839\u672c\u6ca1\u6709": 5716,
  "\u2581Li\u00eau": 5717,
  "\u5728\u5916": 5718,
  "Sau": 5719,
  "\u80af\u5b9a\u4f1a": 5720,
  "\u2581B\u00e2n": 5721,
  "\u2581b\u1ef1c": 5722,
  "\u53cd\u5e94\u8fc7\u6765": 5723,
  "\u897f\u9675\u795e\u6bbf": 5724,
  "Nh\u1eefng": 5725,
  "\u2581lo\u00e0i": 5726,
  "\u7406\u7531": 5727,
  "\u7684\u4e3b": 5728,
  "\u8d3a\u9a81": 5729,
  "\u56de\u5230\u4e86": 5730,
  "\u5e26\u6765\u7684": 5731,
  "ra": 5732,
  "\u2581\u5f20": 5733,
  "\u672c\u80fd": 5734,
  "\u9020\u6210": 5735,
  "\u5fc3\u4e2d\u7684": 5736,
  "\u2581lung": 5737,
  "\u2581phi\u1ebfu": 5738,
  "\u51e0\u6b21": 5739,
  "\u5f97\u7f6a": 5740,
  "\u6ca1\u4e8b": 5741,
  "\u865a\u65e0": 5742,
  "\u672c\u4ee5\u4e3a": 5743,
  "\u9ed1\u8272\u7684": 5744,
  "\u2581Ngu": 5745,
  "\u2581V\u1ecdng": 5746,
  "\u2581h\u1ecfng": 5747,
  "\u5c71\u8109": 5748,
  "\u5e95\u4e0b": 5749,
  "\u6307\u7740": 5750,
  "\u91d1\u4ed9": 5751,
  "\u4e0d\u4ec5\u4ec5": 5752,
  "\u6240\u4ee5\u4ed6": 5753,
  "\u2581D\u1eabn": 5754,
  "\u2581pho": 5755,
  "\u52a8\u7528": 5756,
  "\u626d\u66f2": 5757,
  "\u79d8\u6cd5": 5758,
  "\u2581Ng\u01b0\u1ee3c": 5759,
  "\u5c71\u4e0a": 5760,
  "\u661f\u5149": 5761,
  "\u7389\u7b80": 5762,
  "\u7b2c\u56db": 5763,
  "\u2581V\u0129nh": 5764,
  "\u2581ng\u1ea5t": 5765,
  "\u2581v\u1ea1ch": 5766,
  "\u2581huy\u1ec5n": 5767,
  "\u2581nguy\u1ec7t": 5768,
  "\u5f15\u8d77": 5769,
  "\u80fd\u5728": 5770,
  "\u2581\u00c2u": 5771,
  "\u2581M\u00f4ng": 5772,
  "\u2581chu\u00f4ng": 5773,
  "\u5723\u8005": 5774,
  "\u73cd\u8d35": 5775,
  "\u9634\u5f71": 5776,
  "\u2581\u5982\u4eca": 5777,
  "\u2581m\u1ecf": 5778,
  "\u2581B\u00e2y": 5779,
  "\u2581Th\u1ecd": 5780,
  "\u2581h\u1ecdp": 5781,
  "\u2581s\u1ea7m": 5782,
  "\u2581v\u1ea5t": 5783,
  "\u2581H\u00e0ng": 5784,
  "\u5f88\u597d": 5785,
  "\u767e\u59d3": 5786,
  "\u77b3\u5b54": 5787,
  "\u7edd\u671b": 5788,
  "\u8868\u9762": 5789,
  "\u9a84\u50b2": 5790,
  "\u7b2c\u4e00\u4e2a": 5791,
  "\u2581Thi\u1ec7u": 5792,
  "\u5730\u9053": 5793,
  "\u671f\u5f85": 5794,
  "\u843d\u5230": 5795,
  "\u89d2\u843d": 5796,
  "\u2581s\u00f3i": 5797,
  "\u2581Ch\u01b0a": 5798,
  "\u00e3m": 5799,
  "\u4e0d\u7981": 5800,
  "\u4e86\u4e0b": 5801,
  "\u4ed6\u4e00": 5802,
  "\u4f9d\u9760": 5803,
  "\u516d\u9053": 5804,
  "\u5305\u88f9": 5805,
  "\u6559\u5b97": 5806,
  "\u2581\u8fd9\u662f": 5807,
  "\u66f4\u591a\u7684": 5808,
  "\u2581g\u1eady": 5809,
  "\u2581Bang": 5810,
  "\u4e0d\u582a": 5811,
  "\u52a0\u6301": 5812,
  "\u592a\u4e0a": 5813,
  "\u89c4\u6a21": 5814,
  "\u8fd9\u65f6": 5815,
  "\u4f0f\u5c71\u8d8a": 5816,
  "\u2581gi\u00e0u": 5817,
  "\u4fe1\u4efb": 5818,
  "\u723b\u738b": 5819,
  "\u2581\u0110i": 5820,
  "\u6574\u4e2a\u4eba": 5821,
  "\u2581Ng\u1ee5c": 5822,
  "\u4e00\u523b": 5823,
  "\u4e1c\u65b9": 5824,
  "\u4fee\u70bc\u7684": 5825,
  "\u1ed1m": 5826,
  "\u4e91\u6d77": 5827,
  "\u548c\u5c1a": 5828,
  "\u5929\u754c": 5829,
  "\u5ba2\u6808": 5830,
  "\u7389\u673a": 5831,
  "\u7956\u5e08": 5832,
  "\u540d\u5e08\u5802": 5833,
  "\u6bcf\u4e00\u4e2a": 5834,
  "\u2581c\u00e3i": 5835,
  "\u2581nh\u1ea5c": 5836,
  "\u4ecd\u7136": 5837,
  "\u4fdd\u8bc1": 5838,
  "\u51fa\u7a8d": 5839,
  "\u5b9a\u4e86": 5840,
  "\u6218\u7684": 5841,
  "\u9b42\u9b44": 5842,
  "\u2581c\u00fa": 5843,
  "\u2581b\u00e9o": 5844,
  "\u2581ng\u1ee3i": 5845,
  "\u1ec5u": 5846,
  "\u4e4b\u611f": 5847,
  "\u5357\u7586": 5848,
  "\u6d6a\u8d39": 5849,
  "\u2581m\u00e2u": 5850,
  "\u2581\u0110\u00f4i": 5851,
  "\u2581\u51cc": 5852,
  "\u8bf4\u6cd5": 5853,
  "\u8c03\u67e5": 5854,
  "\u8c28\u614e": 5855,
  "\u8fdb\u6b65": 5856,
  "\u2581m\u1ed3i": 5857,
  "\u2581Gi\u1ea3n": 5858,
  "\u2581gi\u1eabm": 5859,
  "\u2581Ngo\u1ea1i": 5860,
  "\u2581Kho\u1ea3nh": 5861,
  "\u2581Ph\u01b0\u1eddng": 5862,
  "\u4ece\u800c": 5863,
  "\u51fb\u8d25": 5864,
  "\u6574\u7406": 5865,
  "\u6cbf\u7740": 5866,
  "\u2581k\u1ef7": 5867,
  "\u2581\u0111\u1ea1n": 5868,
  "\u2581phi\u1ebfn": 5869,
  "\u5b87\u5b99": 5870,
  "\u51fa\u4e00\u4e2a": 5871,
  "\u90fd\u77e5\u9053": 5872,
  "\u2581ho\u00e3n": 5873,
  "\u2581Ng\u01b0ng": 5874,
  "\u00f2m": 5875,
  "\u5468\u5143": 5876,
  "\u7a0b\u5f13": 5877,
  "\u60c5\u51b5\u4e0b": 5878,
  "\u2581\u0110\u00e0n": 5879,
  "\u5341\u4e94": 5880,
  "\u6015\u662f": 5881,
  "\u603b\u662f": 5882,
  "\u8513\u5ef6": 5883,
  "\u5927\u65b9\u58f6": 5884,
  "\u2581man": 5885,
  "\u91d1\u4e39\u4fee\u58eb": 5886,
  "\u2581b\u1ec7ch": 5887,
  "\u652f\u6491": 5888,
  "\u7ed3\u754c": 5889,
  "\u8ddf\u4ed6": 5890,
  "\u2581x\u00e1": 5891,
  "\u666e\u901a\u4eba": 5892,
  "\u2581C\u1ea7m": 5893,
  "\u2581nh\u00f3c": 5894,
  "\u2581Ph\u00e1ch": 5895,
  "\u4e5f\u8bb8": 5896,
  "\u8eab\u65c1": 5897,
  "\u5c31\u8fd9\u4e48": 5898,
  "\u7684\u7075\u6c14": 5899,
  "\u2581\u4e0e": 5900,
  "\u2581kh\u00e9o": 5901,
  "\u2581tu\u00e2n": 5902,
  "\u505c\u4e0b": 5903,
  "\u64c5\u957f": 5904,
  "\u7728\u773c": 5905,
  "\u600e\u4e48\u6837": 5906,
  "\u2581bi\u1ebfc": 5907,
  "\u2581\u0110\u1ecbnh": 5908,
  "oo": 5909,
  "\u4f20\u97f3": 5910,
  "\u6eda\u6eda": 5911,
  "\u9b54\u541b": 5912,
  "\u2581m\u1ecb": 5913,
  "\u5c31\u77e5\u9053": 5914,
  "\u2581Th\u1ecb": 5915,
  "\u2581nhi\u1ec5u": 5916,
  "\u4ed6\u8fd8": 5917,
  "\u4f7f\u5f97": 5918,
  "\u5f3a\u608d": 5919,
  "\u65e0\u91cf": 5920,
  "\u8fde\u8fde": 5921,
  "\u2581\u1ed3n": 5922,
  "\u53ea\u4f1a": 5923,
  "\u5411\u6765": 5924,
  "\u5929\u6d77": 5925,
  "\u5f02\u7075": 5926,
  "\u6697\u6697": 5927,
  "\u2581Bi": 5928,
  "\u4e00\u4f1a\u513f": 5929,
  "\u2581l\u0103ng": 5930,
  "\u2581ng\u1eabm": 5931,
  "\u60ca\u4eba": 5932,
  "\u5c31\u8fd9\u6837": 5933,
  "\u7684\u4e00\u5207": 5934,
  "\u2581c\u1eady": 5935,
  "\u2581Hoan": 5936,
  "\u2581kh\u00e9p": 5937,
  "\u533a\u522b": 5938,
  "\u770b\u4ed6": 5939,
  "\u7ea2\u9152": 5940,
  "\u836f\u738b": 5941,
  "\u2581Tr\u1ee5": 5942,
  "\u4ece\u524d": 5943,
  "\u4ed9\u821f": 5944,
  "\u53cd\u6297": 5945,
  "\u5bb3\u6015": 5946,
  "\u6253\u542c": 5947,
  "\u65cf\u7684": 5948,
  "\u8ddf\u5728": 5949,
  "\u2581\u8fd9\u79cd": 5950,
  "\u2581ch\u00f4n": 5951,
  "es": 5952,
  "\u4e09\u5343": 5953,
  "\u57ce\u95e8": 5954,
  "\u8d21\u732e": 5955,
  "\u5e9e\u5927\u7684": 5956,
  "\u82e5\u6709\u6240": 5957,
  "\u5927\u5510": 5958,
  "\u5b50\u5f1f": 5959,
  "\u6559\u4e3b": 5960,
  "\u90a3\u5ea7": 5961,
  "\u2581v\u1ee9t": 5962,
  "\u4e00\u9762": 5963,
  "\u4fee\u7684": 5964,
  "\u5996\u738b": 5965,
  "\u6210\u5458": 5966,
  "\u800c\u8fc7": 5967,
  "\u2581M\u1ec5": 5968,
  "\u2581\u82e5\u662f": 5969,
  "\u4e0d\u4e00\u6837": 5970,
  "\u2581khoa": 5971,
  "\u2581nh\u00e9t": 5972,
  "'.": 5973,
  "\u6df1\u5438": 5974,
  "\u2581\u1ea4t": 5975,
  "\u5f88\u5feb\u5c31": 5976,
  "\u2581b\u00f3p": 5977,
  "\u2581x\u00f4i": 5978,
  "\u2581gi\u1ee5c": 5979,
  "\u2581\u01afng": 5980,
  "\u2581ngo\u00e1i": 5981,
  "\u563f\u563f": 5982,
  "\u5927\u5730": 5983,
  "\u6211\u5728": 5984,
  "\u65e0\u540d": 5985,
  "\u66f4\u6709": 5986,
  "\u6781\u9650": 5987,
  "\u771f\u771f": 5988,
  "\u9752\u8272": 5989,
  "\u7ad9\u8d77\u8eab": 5990,
  "\u2581c\u00e0n": 5991,
  "\u2581Tr\u00f9ng": 5992,
  "\u767d\u9aa8": 5993,
  "\u4e5f\u5c31\u662f\u8bf4": 5994,
  "\u5f00\u53e3\u8bf4\u9053": 5995,
  "\u4e4b\u672f": 5996,
  "\u4fbf\u5b9c": 5997,
  "\u8d44\u8d28": 5998,
  "\u8eab\u7684": 5999,
  "\u8fd0\u6c14": 6000,
  "\u6ca1\u6709\u4e1d\u6beb": 6001,
  "\u4e4b\u4e3b": 6002,
  "\u4fe1\u5fc3": 6003,
  "\u5927\u5a18": 6004,
  "\u5931\u671b": 6005,
  "\u738b\u56fd": 6006,
  "\u574a\u5e02": 6007,
  "\u8fd9\u5c31": 6008,
  "\u2581Hay": 6009,
  "\u2581kh\u1ee9": 6010,
  "\u2581gi\u00e3y": 6011,
  "K\u1ebb": 6012,
  "\u4f18\u52bf": 6013,
  "\u5357\u65b9": 6014,
  "\u6210\u4e3a\u4e86": 6015,
  "\u800c\u6765\u7684": 6016,
  "\u2581r\u1ecdi": 6017,
  "\u2581vinh": 6018,
  "\u2581nh\u1ebfch": 6019,
  "\u4e5f\u597d": 6020,
  "\u7684\u91d1": 6021,
  "\u80cc\u5f71": 6022,
  "\u82e6\u7b11": 6023,
  "\u4e86\u8bb8\u591a": 6024,
  "\u2581g\u00f3p": 6025,
  "\u2581ng\u1eafm": 6026,
  "\u2581khi\u00eam": 6027,
  "ag": 6028,
  "\u2581\u4f46\u662f": 6029,
  "\u4e16\u754c\u7684": 6030,
  "\u2581m\u00f3c": 6031,
  "\u2581s\u00e1o": 6032,
  "\u2581tanh": 6033,
  "\u626b\u8fc7": 6034,
  "\u2581\u4e24\u4eba": 6035,
  "\u2581\u6709": 6036,
  "\u4ee4\u724c": 6037,
  "\u51b7\u6f20": 6038,
  "\u5bf9\u6211": 6039,
  "\u624b\u81c2": 6040,
  "\u62ff\u5230": 6041,
  "\u7ea2\u8272": 6042,
  "\u843d\u5728\u4e86": 6043,
  "\u2581c\u1eadp": 6044,
  "\u2581K\u00ecnh": 6045,
  "Tr\u01b0\u01a1ng": 6046,
  "\u62b5\u6297": 6047,
  "\u6b64\u540c\u65f6": 6048,
  "D\u00f9": 6049,
  "is": 6050,
  "\u60e0\u5a18": 6051,
  "\u2581H\u1ed9": 6052,
  "\u2581\u0111\u00f3i": 6053,
  "\u2581L\u1ec7nh": 6054,
  "\u2581t\u00f9ng": 6055,
  "\u4e5f\u7b97": 6056,
  "\u62b5\u8fbe": 6057,
  "\u2581b\u1ecdt": 6058,
  "\u2581g\u1ed1i": 6059,
  "\u2581Vong": 6060,
  "\u2581nham": 6061,
  "\u2581huy\u1ec7n": 6062,
  "\u2581thi\u1ec7t": 6063,
  "\u2581tr\u01b0ng": 6064,
  "\u660e\u7684": 6065,
  "\u8d70\u7684": 6066,
  "\u8fd9\u540d": 6067,
  "\u94f6\u5b50": 6068,
  "\u98de\u51fa": 6069,
  "\u2581\u5bf9\u4e8e": 6070,
  "\u4e07\u4e00": 6071,
  "\u4e09\u767e": 6072,
  "\u5403\u4e86": 6073,
  "\u5c31\u884c": 6074,
  "\u624b\u6301": 6075,
  "\u6839\u57fa": 6076,
  "\u6df7\u5143": 6077,
  "\u7269\u7684": 6078,
  "\u8ddf\u6211": 6079,
  "\u955c\u5b50": 6080,
  "\u5728\u8fd9\u4e2a": 6081,
  "\u2581t\u1ee3n": 6082,
  "\u4e00\u4e8c": 6083,
  "\u660e\u5929": 6084,
  "\u67d0\u4e2a": 6085,
  "\u90a3\u7247": 6086,
  "\u2581mi": 6087,
  "\u4e86\u4e00\u904d": 6088,
  "\u2581d\u1ed1i": 6089,
  "\u2581ng\u1ee1": 6090,
  "\u2581xao": 6091,
  "\u2581Khai": 6092,
  "\u2581ch\u1ed1n": 6093,
  "\u0169a": 6094,
  "\u4ea4\u7ed9": 6095,
  "\u98de\u53bb": 6096,
  "Hai": 6097,
  "\u2581g\u1ecdn": 6098,
  "\u7b2c\u4e00\u65f6\u95f4": 6099,
  "\u662f\u7684": 6100,
  "\u7ed9\u4eba": 6101,
  "\u4e00\u6218": 6102,
  "\u4e0d\u6127": 6103,
  "\u5165\u95e8": 6104,
  "\u6d41\u8f6c": 6105,
  "\u96be\u5ea6": 6106,
  "\u2581n\u1ee3": 6107,
  "\u2581\u00e1i": 6108,
  "\u8fdb\u4e00\u6b65": 6109,
  "\u2581v\u1eb7t": 6110,
  "\u2581Ti\u1ec5n": 6111,
  "\u2581th\u1ea5m": 6112,
  "\u5bb6\u4e2d": 6113,
  "\u6fc0\u53d1": 6114,
  "\u8f85\u52a9": 6115,
  "\u2581D\u1ea7n": 6116,
  "\u2581T\u0103ng": 6117,
  "\u2581ho\u00e0i": 6118,
  "\u4ecd\u65e7": 6119,
  "\u7075\u517d": 6120,
  "\u795e\u541b": 6121,
  "\u2581sen": 6122,
  "\u2581\u0110o\u00e0n": 6123,
  "\u2581Ph\u00f9ng": 6124,
  "\u4e0b\u9762": 6125,
  "\u5145\u6ee1": 6126,
  "\u5fc5\u5b9a": 6127,
  "\u6740\u622e": 6128,
  "\u7684\u540e": 6129,
  "\u77e5\u8bc6": 6130,
  "\u7eb9\u8def": 6131,
  "\u8ba9\u5176": 6132,
  "\u2581ng\u1eb7t": 6133,
  "\u00f9y": 6134,
  "\u5c06\u4f1a": 6135,
  "\u8f70\u7136": 6136,
  "\u9057\u8ff9": 6137,
  "\u4e00\u5b9a\u8981": 6138,
  "\u4f53\u5185\u7684": 6139,
  "\u6700\u540e\u7684": 6140,
  "\u2581tr\u00fa": 6141,
  "\u53eb\u505a": 6142,
  "\u5e95\u8574": 6143,
  "\u7389\u673a\u5b50": 6144,
  "\u2581B\u00e0o": 6145,
  "\u2581gi\u00e1n": 6146,
  "\u5149\u662f": 6147,
  "\u5374\u4e0d": 6148,
  "\u60f3\u8fc7": 6149,
  "\u6155\u5bb9": 6150,
  "\u672c\u5c0a": 6151,
  "\u6b7b\u53bb": 6152,
  "\u7740\u5934": 6153,
  "?\u300d\u300c": 6154,
  "\u2581\u6768": 6155,
  "\u7acb\u5373": 6156,
  "\u9650\u5236": 6157,
  "\u2581m\u1ed7": 6158,
  "\u4e0d\u4e0b": 6159,
  "\u518d\u4e5f": 6160,
  "\u590f\u8a00": 6161,
  "\u5c06\u90a3": 6162,
  "\u5e9f\u589f": 6163,
  "\u79d8\u672f": 6164,
  "\u4e5f\u53ea\u80fd": 6165,
  "\u5269\u4e0b\u7684": 6166,
  "\u2581d\u1ea5y": 6167,
  "\u2581h\u1ea1m": 6168,
  "\u2581\u0110\u1ecbch": 6169,
  "\u4eba\u5fc3": 6170,
  "\u51b7\u9759": 6171,
  "\u56f0\u96be": 6172,
  "\u5bf9\u6297": 6173,
  "\u6697\u81ea": 6174,
  "\u906d\u9047": 6175,
  "\u674e\u51e1\u7684": 6176,
  "\u76f8\u5f53\u4e8e": 6177,
  "\u2581Mao": 6178,
  "\u2581Xu\u1ea5t": 6179,
  "\u5730\u4e0b": 6180,
  "\u5c31\u6ca1": 6181,
  "\u7075\u5c71": 6182,
  "\u8bf4\u5f97": 6183,
  "\u2581l\u0169ng": 6184,
  "\u2581nhu\u1ec7": 6185,
  "\u2581nu\u1ed1i": 6186,
  "\u4e66\u9986": 6187,
  "\u4ee5\u5f80": 6188,
  "\u7267\u5c18": 6189,
  "\u7591\u95ee": 6190,
  "\u84ec\u83b1": 6191,
  "\u2581chen": 6192,
  "\u524d\u884c": 6193,
  "\u6321\u4f4f": 6194,
  "\u8f9b\u82e6": 6195,
  "\u95ea\u7535": 6196,
  "\u4e86\u4e00\u9635": 6197,
  "\u2581Nho": 6198,
  "\u2581V\u1eadt": 6199,
  "\u8fd1\u4e4e": 6200,
  "\u2581s\u1ec9": 6201,
  "\u60f3\u8d77\u4e86": 6202,
  "\u2581Kh\u00e1ch": 6203,
  "\u4ed6\u4fbf": 6204,
  "\u5468\u56ed": 6205,
  "\u5904\u7684": 6206,
  "\u5916\u4eba": 6207,
  "\u604d\u7136": 6208,
  "\u7ea2\u9c7c": 6209,
  "\u2581\u542c\u5230": 6210,
  "\u4e00\u70b9\u70b9": 6211,
  "\u4ed6\u6ca1\u6709": 6212,
  "\u2581r\u1eafc": 6213,
  "\u2581t\u1ee5ng": 6214,
  "\u5077\u88ad": 6215,
  "\u5341\u516b": 6216,
  "\u75b2\u60eb": 6217,
  "\u2581\u4e8e\u662f": 6218,
  "\u2581\u8bb8\u4e50": 6219,
  "\u8fd9\u4e00\u5207": 6220,
  "\u534e\u590f": 6221,
  "\u770b\u7684": 6222,
  "\u795e\u5b98": 6223,
  "\u2581r\u1ec9": 6224,
  "\u2581B\u1ed1n": 6225,
  "\u2581si\u1ebft": 6226,
  "\u5e08\u5085": 6227,
  "\u7ed9\u81ea\u5df1": 6228,
  "\u2581Ph\u00fa": 6229,
  "\u53d1\u52a8": 6230,
  "\u591a\u534a": 6231,
  "\u5e9e\u5927": 6232,
  "\u665a\u8f88": 6233,
  "\u7684\u4e00\u4e9b": 6234,
  "\u7ea2\u5c06\u519b": 6235,
  "\u2581gi\u1ee5a": 6236,
  "\u2581h\u1ecdng": 6237,
  "\u624b\u7684": 6238,
  "\u65b0\u95fb": 6239,
  "\u9762\u5b50": 6240,
  "\u5f88\u957f\u65f6\u95f4": 6241,
  "\u53ea\u5f97": 6242,
  "\u65f6\u4ee3": 6243,
  "\u80cc\u666f": 6244,
  "\u5bf9\u81ea\u5df1": 6245,
  "tr": 6246,
  "\u4f24\u5bb3": 6247,
  "\u5634\u91cc": 6248,
  "\u5f69\u8863": 6249,
  "\u6c89\u541f": 6250,
  "\u8ddf\u968f": 6251,
  "\u662f\u4e3a\u4e86": 6252,
  "\u2581ki\u1ec1m": 6253,
  "\u2581ng\u00f3ng": 6254,
  "\u2581tri\u1ec7n": 6255,
  "\u2581\u1eeb": 6256,
  "\u5728\u4e8e": 6257,
  "\u7ec6\u8282": 6258,
  "\u2581r\u1ed9": 6259,
  "\u5176\u4e2d\u7684": 6260,
  "\u2581tr\u00e0ng": 6261,
  "\u4e4b\u9645": 6262,
  "\u6bcf\u4e00": 6263,
  "\u6d41\u6dcc": 6264,
  "\u8bae\u8bba": 6265,
  "\u2581K\u1ec3": 6266,
  "\u2581h\u00ec": 6267,
  "\u53ef\u80fd\u6027": 6268,
  "\u2581\u0110\u00e0m": 6269,
  "\u4e86\u4e00\u53e3\u6c14": 6270,
  "\u2581Ng\u01b0u": 6271,
  "\u4e00\u7fa4": 6272,
  "\u5bf9\u6b64": 6273,
  "\u715e\u6c14": 6274,
  "\u9080\u8bf7": 6275,
  "\u8eab\u540e\u7684": 6276,
  "\u90fd\u4e0d\u662f": 6277,
  "\u6ca1\u80fd": 6278,
  "\u6d88\u5931\u4e0d\u89c1": 6279,
  "\u2581tr\u1ea1ch": 6280,
  "\u56e0\u679c": 6281,
  "\u624b\u8155": 6282,
  "\u661f\u7a7a": 6283,
  "\u6df1\u5165": 6284,
  "\u906e\u63a9": 6285,
  "\u4e86\u4e00\u756a": 6286,
  "\u2581Ph\u1ea7n": 6287,
  "\u2581Tu\u1ea5n": 6288,
  "\u4e03\u661f": 6289,
  "\u4e86\u5417": 6290,
  "\u540c\u610f": 6291,
  "\u6536\u96c6": 6292,
  "\u884c\u793c": 6293,
  "\u4ed9\u9053": 6294,
  "\u672c\u5ea7": 6295,
  "\u8bd5\u63a2": 6296,
  "\u4e86\u4e0b\u53bb": 6297,
  "\u53ef\u4ee5\u8bf4": 6298,
  "\u6211\u4eec\u7684": 6299,
  "\u65b9\u9762\u7684": 6300,
  "\u2581l\u1ed9t": 6301,
  "\u2581tu\u1ec7": 6302,
  "\u2581hu\u1ea5n": 6303,
  "\u5e94\u5bf9": 6304,
  "\u638c\u5fc3": 6305,
  "\u7709\u5fc3": 6306,
  "\u95e8\u5916": 6307,
  "\u2581\u00d4n": 6308,
  "\u5999\u6e5b\u5929": 6309,
  "\u2581Di\u00eam": 6310,
  "\u5996\u602a": 6311,
  "\u5f3a\u5ea6": 6312,
  "\u795e\u7684": 6313,
  "\u9ad8\u9636": 6314,
  "\u4e5f\u53ea\u6709": 6315,
  "\u8fc7\u53bb\u4e86": 6316,
  "\u4e00\u6bb5\u65f6\u95f4": 6317,
  "\u2581cong": 6318,
  "\u2581nh\u1ec7n": 6319,
  "\u56de\u5fc6": 6320,
  "\u738b\u6797": 6321,
  "\u975e\u51e1": 6322,
  "\u5230\u4e86\u6781": 6323,
  "\u2581Trai": 6324,
  "\u2581nh\u00e1nh": 6325,
  "\u4eec\u7684": 6326,
  "\u57ce\u5899": 6327,
  "\u7cfb\u7edf": 6328,
  "\u7f8e\u4e3d": 6329,
  "\u627e\u4e0d\u5230": 6330,
  "\u6709\u5f88\u591a": 6331,
  "\u7684\u5b66\u751f": 6332,
  "\u9732\u51fa\u4e86": 6333,
  "\u77ed\u65f6\u95f4\u5185": 6334,
  "\u2581Gian": 6335,
  "\u2581Tr\u1ea3m": 6336,
  "\u2581Quy\u1ec1n": 6337,
  "\u2581chinh": 6338,
  "\u4e00\u534a": 6339,
  "\u662f\u88ab": 6340,
  "\u8f6c\u8fc7": 6341,
  "\u7684\u65b9\u6cd5": 6342,
  "\u770b\u4e0d\u5230": 6343,
  "\u8ba9\u81ea\u5df1": 6344,
  "\u2581b\u1ea5m": 6345,
  "\u2581b\u01b0ng": 6346,
  "\u4f2a\u88c5": 6347,
  "\u5317\u65b9": 6348,
  "\u56de\u5e94": 6349,
  "\u9752\u4e91": 6350,
  "\u2581c\u1ee1": 6351,
  "\u7684\u7a7a\u95f4": 6352,
  "\u2581m\u1eafc": 6353,
  "\u2581gi\u1ec5u": 6354,
  "\u2581ng\u1eaft": 6355,
  "\u591c\u8272": 6356,
  "\u725f\u56fd": 6357,
  "\u2581t\u00ea": 6358,
  "\u2581\u01afu": 6359,
  "\u2581\u1ea8n": 6360,
  "\u6211\u77e5\u9053": 6361,
  "\u6ce8\u610f\u5230": 6362,
  "\u2581\u0111\u0129a": 6363,
  "\u2581hi\u1ebfu": 6364,
  "\u2581s\u00f9ng": 6365,
  "\u4e24\u6b21": 6366,
  "\u4e5f\u65e0": 6367,
  "\u4f4e\u9636": 6368,
  "\u795e\u5251": 6369,
  "\u8d70\u8fdb": 6370,
  "\u674e\u5468\u5dcd": 6371,
  "\u2581Ch\u1eed": 6372,
  "\u2581nh\u00fang": 6373,
  "\u3002............": 6374,
  "\u2581\u5b81": 6375,
  "\u4e0d\u8bed": 6376,
  "\u5175\u5668": 6377,
  "\u5931\u53bb": 6378,
  "\u2581\u591c\u6b87": 6379,
  "\u8fd9\u4e5f\u662f": 6380,
  "\u2581Tr\u01b0": 6381,
  "\u2581kh\u1ebf": 6382,
  "\u2581k\u00e8m": 6383,
  "\u2581m\u1ea1i": 6384,
  "\u2581r\u1ec7t": 6385,
  "\u4ed6\u80fd": 6386,
  "\u4ed9\u5883": 6387,
  "\u591a\u8c22": 6388,
  "\u6d41\u5149": 6389,
  "\u2581D\u1ee5": 6390,
  "\u56de\u6765\u4e86": 6391,
  "\u58f0\u8bf4\u9053": 6392,
  "\u5e72\u4ec0\u4e48": 6393,
  "\u2581V\u00e0o": 6394,
  "\u2581khuy": 6395,
  "\u4ed6\u8981": 6396,
  "\u5b54\u5e08": 6397,
  "\u5f97\u610f": 6398,
  "\u6211\u5bb6": 6399,
  "\u65f6\u7a7a": 6400,
  "\u670d\u7528": 6401,
  "\u7684\u80fd\u529b": 6402,
  "\u2581b\u00f9a": 6403,
  "\u2581c\u1eb1m": 6404,
  "\u2581Hi\u1ebfn": 6405,
  "\u2581H\u01b0ng": 6406,
  "\u2581Tri\u1ec3n": 6407,
  "\u2581X\u01b0\u01a1ng": 6408,
  "\u754f\u60e7": 6409,
  "\u7684\u771f": 6410,
  "\u793a\u610f": 6411,
  "\u81ea\u7531": 6412,
  "\u8865\u5145": 6413,
  "\u9519\u4e86": 6414,
  "\u9633\u5149": 6415,
  "\u674e\u901a\u5d16": 6416,
  "\u695a\u79e6\u95e8": 6417,
  "\u7684\u540c\u65f6": 6418,
  "\u4e07\u91cc": 6419,
  "\u4f20\u5947": 6420,
  "\u62c5\u5fe7": 6421,
  "\u60f3\u529e\u6cd5": 6422,
  "\u2581l\u1ea7y": 6423,
  "\u2581nua": 6424,
  "\u2581\u0111\u1eaft": 6425,
  "\u4e25\u8083": 6426,
  "\u4f20\u6388": 6427,
  "\u5de6\u624b": 6428,
  "\u6bcd\u4eb2": 6429,
  "\u6c34\u57ce": 6430,
  "\u7709\u6bdb": 6431,
  "\u8bde\u751f": 6432,
  "\u5251\u6c60": 6433,
  "\u5802\u5802": 6434,
  "\u7b14\u76f4": 6435,
  "\u8054\u76df": 6436,
  "\u80dc\u5149": 6437,
  "\u8131\u79bb": 6438,
  "\u4ed6\u81ea\u5df1": 6439,
  "\u4e00\u6307": 6440,
  "\u4ee5\u6b64": 6441,
  "\u4f60\u5c31": 6442,
  "\u56db\u9762": 6443,
  "\u6b66\u6280": 6444,
  "\u7075\u8109": 6445,
  "\u4fee\u70bc\u5230": 6446,
  "\u7684\u7075\u529b": 6447,
  "\u2581th\u1ec1": 6448,
  "\u8fd9\u4e48\u591a\u5e74": 6449,
  "\u2581Th\u00f4i": 6450,
  "\u2581\u8d75": 6451,
  "\u4eba\u5728": 6452,
  "\u533a\u533a": 6453,
  "\u90fd\u5f88": 6454,
  "man": 6455,
  "\u53ea\u89c9\u5f97": 6456,
  "\u2581Kh\u00f4": 6457,
  "--": 6458,
  "\u5316\u8eab": 6459,
  "\u53ec\u5524": 6460,
  "\u6b63\u9762": 6461,
  "\u77f3\u677f": 6462,
  "\u2581h\u1ec9": 6463,
  "\u2581\u00dac": 6464,
  "\u5728\u81ea\u5df1": 6465,
  "\u8fd9\u4e0d\u662f": 6466,
  "\u2581Ph\u1ee5": 6467,
  "\u2581ph\u1ec9": 6468,
  "\u5934\u53d1": 6469,
  "\u65e0\u5fe7": 6470,
  "\u66f4\u9ad8": 6471,
  "\u6781\u54c1": 6472,
  "\u6b66\u9053": 6473,
  "\u4f20\u6765\u7684": 6474,
  "\u9677\u5165\u4e86": 6475,
  "\u82e5\u6709\u6240\u601d": 6476,
  "\u2581ni\u1ec1m": 6477,
  "\u2581x\u00e1ch": 6478,
  "\u2581Chuy\u1ec3n": 6479,
  "V\u1ecb": 6480,
  "\u00fan": 6481,
  "\u519b\u7684": 6482,
  "\u5927\u4f1a": 6483,
  "\u5f53\u771f": 6484,
  "\u6240\u8bf4": 6485,
  "\u8d77\u7684": 6486,
  "\u9b4f\u7d22": 6487,
  "\u2581\u0111\u00e0": 6488,
  "\u5077\u5077": 6489,
  "\u5728\u4e0b": 6490,
  "\u5750\u4e0b": 6491,
  "\u5927\u5b66": 6492,
  "\u6e05\u9192": 6493,
  "\u7740\u5b9e": 6494,
  "\u950b\u5229": 6495,
  "\u4e86\u4e00\u9053": 6496,
  "\u2581Suy": 6497,
  "\u2581nghi\u1ec7t": 6498,
  "\u4e25\u91cd": 6499,
  "\u5341\u4e03": 6500,
  "\u6025\u901f": 6501,
  "\u65e0\u7591": 6502,
  "\u72f0\u72de": 6503,
  "\u7687\u5bab": 6504,
  "\u7acb\u9a6c": 6505,
  "\u7ee7\u627f": 6506,
  "\u8bdd\u97f3": 6507,
  "\u2581x\u1ebb": 6508,
  "\u4e00\u4e2a\u6708": 6509,
  "\u53ef\u80fd\u662f": 6510,
  "\u2581u\u1ea5t": 6511,
  "Ch\u00ednh": 6512,
  "\u2581Ph\u00e2n": 6513,
  "\u4e00\u5927": 6514,
  "\u5404\u6d3e": 6515,
  "\u57ce\u5e02": 6516,
  "\u5929\u5143": 6517,
  "\u6211\u770b": 6518,
  "\u6b7b\u6b7b": 6519,
  "\u6731\u5927\u5a18": 6520,
  "Ph\u1ea3i": 6521,
  "\u2581N\u1ed9i": 6522,
  "\u1ea6m": 6523,
  "\u2581\u89c1": 6524,
  "\u4e00\u65b9": 6525,
  "\u524d\u8fdb": 6526,
  "\u5f97\u77e5": 6527,
  "\u6700\u521d": 6528,
  "\u7edd\u4e16": 6529,
  "\u2581\u0110a": 6530,
  "\u4e8b\u5b9e\u4e0a": 6531,
  "\u6447\u6447\u5934": 6532,
  "\u4f46\u4e5f": 6533,
  "\u5948\u4f55": 6534,
  "\u8986\u76d6": 6535,
  "\u90a3\u5f20": 6536,
  "\u4e00\u5b9a\u4f1a": 6537,
  "\u53ea\u5269\u4e0b": 6538,
  "\u8fd9\u4e00\u523b": 6539,
  "\u2581N\u1ea1i": 6540,
  "\u524d\u7ebf": 6541,
  "\u8bd5\u8bd5": 6542,
  "\u8fd9\u4efd": 6543,
  "\u2581L\u1ea5y": 6544,
  "\u2581m\u1ecbch": 6545,
  "\u4e00\u540c": 6546,
  "\u4f60\u60f3": 6547,
  "\u5165\u53e3": 6548,
  "\u73b0\u51fa": 6549,
  "\u884c\u7684": 6550,
  "\u8d2d\u4e70": 6551,
  "\u9488\u5bf9": 6552,
  "\u674e\u7ea2\u9152": 6553,
  "\u2581C\u0103n": 6554,
  "\u2581c\u01b0\u1edbc": 6555,
  "\u2581ng\u1eeda": 6556,
  "\u2581n\u1eafng": 6557,
  "\u5c0f\u697c": 6558,
  "\u5fd8\u8bb0": 6559,
  "\u7b11\u610f": 6560,
  "\u9020\u5316": 6561,
  "\u2581\u0111\u1eady": 6562,
  "\u4f55\u7b49": 6563,
  "\u5efa\u7acb": 6564,
  "\u62fc\u547d": 6565,
  "\u846b\u82a6": 6566,
  "\u2581T\u1ed9c": 6567,
  "\u2581v\u1ec7t": 6568,
  "\u4eba\u9a6c": 6569,
  "\u5251\u9053": 6570,
  "\u9ed1\u888d": 6571,
  "\u4e00\u5f00\u59cb": 6572,
  "\u7684\u773c\u775b": 6573,
  "\u2581th\u01a1m": 6574,
  "\u2581khoang": 6575,
  "\u5b88\u62a4": 6576,
  "\u9760\u7740": 6577,
  "\u98ce\u541b\u5b50": 6578,
  "\u2581D\u1ef1c": 6579,
  "\u2581th\u1eb9n": 6580,
  "\u2581\u0110i\u1ec3n": 6581,
  "\u5728\u6211": 6582,
  "\u590f\u4faf": 6583,
  "\u72c2\u66b4": 6584,
  "\u7ba1\u4e8b": 6585,
  "\u2581ve": 6586,
  "\u2581d\u01b0a": 6587,
  "\u51b7\u54fc": 6588,
  "\u683c\u5916": 6589,
  "\u83ab\u975e": 6590,
  "\u901a\u5929": 6591,
  "\u2581x\u00e3": 6592,
  "\u5b9e\u5728\u592a": 6593,
  "\u8981\u4e0d\u662f": 6594,
  "\u2581Ch\u01b0": 6595,
  "\u2581Kh\u1ea3": 6596,
  "\u5230\u6765": 6597,
  "\u2581B\u01b0u": 6598,
  "\u2581kh\u00e0n": 6599,
  "\u4e00\u4eae": 6600,
  "\u4e39\u65b9": 6601,
  "\u5374\u88ab": 6602,
  "\u5f3a\u7684": 6603,
  "\u68c0\u67e5": 6604,
  "\u6c11\u4f17": 6605,
  "\u771f\u706b": 6606,
  "\u773c\u7684": 6607,
  "\u8f70\u9686": 6608,
  "ago": 6609,
  "\u4e4b\u4e2d\u7684": 6610,
  "\u5927\u5b97\u95e8": 6611,
  "\u60f3\u5230\u4e86": 6612,
  "\u2581h\u1ea5t": 6613,
  "\u51fa\u8eab": 6614,
  "\u73b0\u573a": 6615,
  "\u9ed1\u7532": 6616,
  "\u2581C\u1ea7u": 6617,
  "\u4e4b\u5fc3": 6618,
  "\u51e0\u5e74": 6619,
  "\u5929\u52ab": 6620,
  "\u65f6\u671f": 6621,
  "\u65e0\u6bd4\u7684": 6622,
  "\u2581T\u00f4i": 6623,
  "\u2581gi\u1edf": 6624,
  "\u2581Di\u1ec7n": 6625,
  "\u2581T\u1ee9c": 6626,
  "\u4eba\u5f71": 6627,
  "\u5404\u4e2a": 6628,
  "\u5e26\u6765": 6629,
  "\u6700\u5927": 6630,
  "\u5230\u73b0\u5728": 6631,
  "\u6253\u4e86\u4e2a": 6632,
  "\u2581d\u1ea3i": 6633,
  "\u2581g\u01b0\u1ee3ng": 6634,
  "\u4e89\u53d6": 6635,
  "\u53cc\u76ee": 6636,
  "\u8ba8\u8bba": 6637,
  "\u2581\u751a\u81f3": 6638,
  "\u2581r\u1eadm": 6639,
  "\u5374\u4e5f": 6640,
  "\u540e\u5c71": 6641,
  "\u56f4\u653b": 6642,
  "\u662f\u4e0d": 6643,
  "\u7075\u5bc2": 6644,
  "\u7740\u4ed6": 6645,
  "\u96c6\u4e2d": 6646,
  "eng": 6647,
  "\u7684\u773c\u795e": 6648,
  "\u2581M\u1eb7t": 6649,
  "\u2581San": 6650,
  "\u2581I": 6651,
  "\u4e4b\u6218": 6652,
  "\u4fee\u590d": 6653,
  "\u52a0\u54e5": 6654,
  "\u7b26\u7bc6": 6655,
  "\u2581m\u00e1": 6656,
  "\u829d\u52a0\u54e5": 6657,
  "\u89e3\u91ca\u9053": 6658,
  "\u949f\u80dc\u5149": 6659,
  "\u5723\u57df": 6660,
  "\u5723\u7687": 6661,
  "\u624d\u6709": 6662,
  "\u653e\u51fa": 6663,
  "\u767d\u8863": 6664,
  "\u7b49\u4e8e": 6665,
  "\u2581thung": 6666,
  "\u4e00\u8f6c": 6667,
  "\u4e3a\u4ed6": 6668,
  "\u51b2\u5929": 6669,
  "\u51e0\u540d": 6670,
  "\u54ea\u6709": 6671,
  "\u56de\u8fc7": 6672,
  "\u61d2\u5f97": 6673,
  "\u7ed3\u5408": 6674,
  "\u8033\u8fb9": 6675,
  "\u804c\u4e1a": 6676,
  "\u2581r\u00e3": 6677,
  "\u5730\u8bf4\u9053": 6678,
  "cago": 6679,
  "\u2581C\u1ee5c": 6680,
  "\u2581h\u1ed1t": 6681,
  "\u7b11\u7740\u8bf4\u9053": 6682,
  "\u2581Th\u0103ng": 6683,
  "\u2581Chicago": 6684,
  "\u4e00\u987f": 6685,
  "\u4f46\u6211": 6686,
  "\u4f55\u5904": 6687,
  "\u5374\u89c1": 6688,
  "\u7528\u529b": 6689,
  "\u81f3\u5c0a": 6690,
  "\u2581V\u1ee5": 6691,
  "\u2581\u8bf4": 6692,
  "\u5bc6\u5bc6": 6693,
  "\u6218\u80dc": 6694,
  "\u6267\u6cd5": 6695,
  "\u62ff\u8d77": 6696,
  "T\u00f4i": 6697,
  "\u2581C\u1ea3": 6698,
  "\u662f\u4e00\u79cd": 6699,
  "\u2581g\u00e3i": 6700,
  "\u2581\u6b63": 6701,
  "\u4e0d\u8bba": 6702,
  "\u5341\u516d": 6703,
  "\u56db\u4eba": 6704,
  "\u5965\u672f": 6705,
  "\u6765\u5386": 6706,
  "\u6b7b\u5728": 6707,
  "\u2581l\u1eef": 6708,
  "\u65e9\u5df2\u7ecf": 6709,
  "\u53f8\u9a6c\u60e0\u5a18": 6710,
  "\u2581ngh\u00e8o": 6711,
  "\u4e00\u6014": 6712,
  "\u4e0b\u573a": 6713,
  "\u4e0d\u5f00": 6714,
  "\u4f20\u51fa": 6715,
  "\u5251\u9601": 6716,
  "\u5c0f\u961f": 6717,
  "\u6709\u8fc7": 6718,
  "\u6f29\u6da1": 6719,
  "\u865a\u5f31": 6720,
  "\u8fc7\u540e": 6721,
  "\u8fdc\u7684": 6722,
  "\u6218\u573a\u4e0a": 6723,
  "\u2581l\u1ea3o": 6724,
  "\u4e00\u624b": 6725,
  "\u5927\u54e5": 6726,
  "\u5f80\u524d": 6727,
  "\u653e\u8fc7": 6728,
  "\u2581t\u1ec1": 6729,
  "\u2581\u0110\u00e0": 6730,
  "\u2581Th\u1eed": 6731,
  "\u6839\u672c\u65e0\u6cd5": 6732,
  "\u2581Ki\u1ec7t": 6733,
  "\u2581tr\u1eafc": 6734,
  "\u4ece\u4e2d": 6735,
  "\u4f60\u8fd9": 6736,
  "\u51dd\u7ed3": 6737,
  "\u9634\u6c89": 6738,
  "\u5468\u56f4\u7684": 6739,
  "\u90fd\u4e0d\u4f1a": 6740,
  "\u2581san": 6741,
  "\u2581Loan": 6742,
  "\u4f60\u5728": 6743,
  "\u518d\u65e0": 6744,
  "\u51fb\u6740": 6745,
  "\u610f\u5ff5": 6746,
  "\u6297\u8861": 6747,
  "\u73b2\u73d1": 6748,
  "\u7684\u4e0d": 6749,
  "\u76ae\u76ae": 6750,
  "\u795e\u7075": 6751,
  "\u8fd9\u4e8b": 6752,
  "\u90a3\u5934": 6753,
  "\u53d1\u751f\u4e86": 6754,
  "\u7684\u5bb6\u4f19": 6755,
  "\u4e07\u4fdf": 6756,
  "\u5927\u7b11": 6757,
  "\u5e74\u9f84": 6758,
  "\u603b\u7edf": 6759,
  "\u603b\u90e8": 6760,
  "\u76f8\u5e94": 6761,
  "\u8001\u5b9e": 6762,
  "\u8c01\u80fd": 6763,
  "\u2581V\u0129": 6764,
  "\u7f57\u5929\u5b97": 6765,
  "\u2581L\u1ee3i": 6766,
  "\u773c\u524d\u8fd9\u4f4d": 6767,
  "\u2581L\u00e3nh": 6768,
  "\u2581bu\u00f4n": 6769,
  "\u2581ng\u1eedi": 6770,
  "\u2581Khanh": 6771,
  "\u6d89\u53ca": 6772,
  "\u72fc\u72c8": 6773,
  "\u7384\u5999": 6774,
  "\u4f4e\u58f0\u9053": 6775,
  "\u6ce8\u610f\u529b": 6776,
  "\u5982\u679c\u4e0d\u662f": 6777,
  "\u53d1\u751f\u4e86\u4ec0\u4e48": 6778,
  "et": 6779,
  "\u2581\u82cf": 6780,
  "\u6574\u6574": 6781,
  "\u7684\u706b": 6782,
  "\u81ea\u884c": 6783,
  "\u8981\u53bb": 6784,
  "\u8a00\u8bed": 6785,
  "\u5145\u6ee1\u4e86": 6786,
  "\u5929\u4e66\u9675": 6787,
  "\u2581h\u1ed1c": 6788,
  "\u2581l\u00e2n": 6789,
  "\u2581li\u1ec5m": 6790,
  "\u2581Chi\u1ebfc": 6791,
  "\u2581Khinh": 6792,
  "kh": 6793,
  "\u8054\u5408": 6794,
  "\u2581K\u00fd": 6795,
  "\u2581L\u1eef": 6796,
  "\u2581ch\u1ed9p": 6797,
  "\u540c\u4f34": 6798,
  "\u6253\u51fa": 6799,
  "\u6253\u5f97": 6800,
  "\u2581b\u00f4ng": 6801,
  "\u2581tr\u1ebbo": 6802,
  "\u2581ngo\u00e3n": 6803,
  "\u516b\u65b9": 6804,
  "\u5173\u5fc3": 6805,
  "\u5371\u673a": 6806,
  "\u6f02\u4eae": 6807,
  "\u7565\u5fae": 6808,
  "\u7ebf\u7d22": 6809,
  "\u7f25\u7f08": 6810,
  "\u2581Xo": 6811,
  "\u2581\u1ea6m": 6812,
  "\u5c06\u81ea\u5df1": 6813,
  "\u2581th\u00f9ng": 6814,
  "\u2581khoanh": 6815,
  "ha": 6816,
  "\u5bf9\u6218": 6817,
  "\u7389\u9f0e": 6818,
  "\u2581D\u1eabu": 6819,
  "\u2581l\u1ee5a": 6820,
  "\u8116\u5b50": 6821,
  "\u2581h\u00e1i": 6822,
  "\u2581s\u1ea3i": 6823,
  "\u2581\u0110\u1ed9i": 6824,
  "\u2581gi\u00e0y": 6825,
  "Ha": 6826,
  "\u5927\u6cb3": 6827,
  "\u597d\u4e8b": 6828,
  "\u60f3\u50cf": 6829,
  "\u672c\u4f53": 6830,
  "\u8857\u9053": 6831,
  "\u8fc7\u4e8e": 6832,
  "\u7684\u653b\u51fb": 6833,
  "\u2581th\u1eaft": 6834,
  "\u0110a": 6835,
  "\u5c3d\u5feb": 6836,
  "\u5fc3\u9b54": 6837,
  "\u6709\u591a\u5c11": 6838,
  "\u90fd\u4e0d\u6562": 6839,
  "\u2581ch\u1ea1p": 6840,
  "\u4e9b\u8bb8": 6841,
  "\u6210\u957f": 6842,
  "\u7834\u5f00": 6843,
  "\u7eaf\u7cb9": 6844,
  "\u9053\u7edf": 6845,
  "\u7684\u529f\u6cd5": 6846,
  "\u7684\u60c5\u7eea": 6847,
  "\u91cc\u9762\u7684": 6848,
  "\u9635\u6cd5\u7684": 6849,
  "\u2581D\u1ef1a": 6850,
  "\u4e00\u5171": 6851,
  "\u4e94\u4e2a": 6852,
  "\u6536\u8d77": 6853,
  "\u662f\u4f60": 6854,
  "\u7687\u752b": 6855,
  "\u79bb\u5bab": 6856,
  "\u897f\u5357": 6857,
  "\u8fd8\u60f3": 6858,
  "\u9003\u8d70": 6859,
  "\u2581V\u00ed": 6860,
  "\u5927\u5706\u6ee1": 6861,
  "\u5c31\u597d\u50cf": 6862,
  "\u6781\u5927\u7684": 6863,
  "\u2581dong": 6864,
  "\u2581tr\u1ed3ng": 6865,
  "\u5347\u8d77": 6866,
  "\u611f\u53f9": 6867,
  "\u7b49\u7ea7": 6868,
  "\u2581l\u00ea": 6869,
  "\u5f1f\u5b50\u7684": 6870,
  "\u5468\u8eab": 6871,
  "\u5634\u5507": 6872,
  "\u5bb6\u91cc": 6873,
  "\u62a4\u6cd5": 6874,
  "\u6536\u62fe": 6875,
  "\u2581\u53ef\u662f": 6876,
  "\u542c\u8bf4\u8fc7": 6877,
  "\u2581C\u1ea9n": 6878,
  "\u4e0d\u5149": 6879,
  "\u4f60\u53ef": 6880,
  "\u5723\u5973": 6881,
  "\u6ca1\u9519": 6882,
  "\u843d\u5730": 6883,
  "\u2581d\u1edf": 6884,
  "\u8138\u8272\u4e00": 6885,
  "\u2581M\u00e3i": 6886,
  "\u95ea\u91d1\u5e73\u539f": 6887,
  "\u2581H\u00e1ch": 6888,
  "\u2581T\u01b0\u1edfng": 6889,
  "\u63e1\u7740": 6890,
  "\u6545\u800c": 6891,
  "\u65bd\u6cd5": 6892,
  "\u2581T\u1ea1o": 6893,
  "\u2581nh\u1ed1t": 6894,
  "\u2581Phi\u00eau": 6895,
  "\u4e0d\u6e05": 6896,
  "\u60f3\u60f3": 6897,
  "\u67e5\u770b": 6898,
  "\u767e\u591a": 6899,
  "\u97e9\u77bb": 6900,
  "\u4e0d\u6127\u662f": 6901,
  "\u7f57\u5c18\u7684": 6902,
  "\u2581T\u1ed1c": 6903,
  "\u2581kh\u01a1i": 6904,
  "\u2581ph\u00e1c": 6905,
  "],": 6906,
  "ol": 6907,
  "\u4e0d\u987e": 6908,
  "\u5934\u9885": 6909,
  "\u6446\u4e86": 6910,
  "\u9ebb\u9ebb": 6911,
  "\u2581r\u1ec5": 6912,
  "\u82e5\u4e0d\u662f": 6913,
  "\u2581s\u00f3c": 6914,
  "ro": 6915,
  "\u4e0d\u4f46": 6916,
  "\u738b\u5ead": 6917,
  "\u77f3\u5ca9": 6918,
  "\u989c\u8272": 6919,
  "\u53d6\u51fa\u4e00": 6920,
  "\u65f6\u4e0d\u65f6": 6921,
  "\u8fd8\u662f\u8981": 6922,
  "\u4e00\u6643": 6923,
  "\u4e2d\u4e86": 6924,
  "\u4ef6\u4e8b": 6925,
  "\u65cf\u957f": 6926,
  "\u6d77\u7684": 6927,
  "\u8be6\u7ec6": 6928,
  "\u8fd9\u5934": 6929,
  "\u9053\u6e6e": 6930,
  "\u2581Tu\u1ec7": 6931,
  "\u2581Th\u00f4n": 6932,
  "\u4e0a\u95e8": 6933,
  "\u4e5d\u5c42": 6934,
  "\u672c\u4eba": 6935,
  "\u7687\u5b50": 6936,
  "\u8fd9\u756a": 6937,
  "Qu\u1ea3": 6938,
  "\u2581\u4f17\u4eba": 6939,
  "\u4e0d\u505c\u5730": 6940,
  "\u2581k\u1eb9t": 6941,
  "\u90fd\u4e0d\u77e5\u9053": 6942,
  "\u2581li\u1ec5u": 6943,
  "\u4e00\u56e2": 6944,
  "\u53c8\u8981": 6945,
  "\u5c9b\u4e0a": 6946,
  "\u62b1\u62f3": 6947,
  "\u6df1\u539a": 6948,
  "\u738b\u7684": 6949,
  "\u76d8\u819d": 6950,
  "\u8e0f\u5165": 6951,
  "\u9635\u5e08": 6952,
  "Tuy": 6953,
  "\u2581B\u1ecb": 6954,
  "\u7ad9\u8d77\u8eab\u6765": 6955,
  "\u2581H\u1ea1ng": 6956,
  "\u2581nh\u00edch": 6957,
  "\u4e0d\u6015": 6958,
  "\u4f5c\u54c1": 6959,
  "\u4f60\u80fd": 6960,
  "\u521b\u9020": 6961,
  "\u529b\u6c14": 6962,
  "\u666f\u671d": 6963,
  "\u719f\u7ec3": 6964,
  "\u7ffc\u7ffc": 6965,
  "\u2581d\u00e1n": 6966,
  "\u2581b\u00e0ng": 6967,
  "\u2581xi\u1ebft": 6968,
  "\u2581ph\u1eb3ng": 6969,
  "\u4e0d\u7edd": 6970,
  "\u5b8c\u6bd5": 6971,
  "\u6298\u8896": 6972,
  "\u77e5\u9053\u7684": 6973,
  "\u5230\u8fbe": 6974,
  "\u5728\u5979": 6975,
  "\u4e0d\u540c\u7684": 6976,
  "\u53f6\u7ea2\u9c7c": 6977,
  "\u771f\u4eba\u7684": 6978,
  "\u2581l\u00f5i": 6979,
  "\u4e0d\u61c2": 6980,
  "\u4e24\u53ea": 6981,
  "\u674e\u9038": 6982,
  "\u9996\u9886": 6983,
  "\u9f50\u9f50": 6984,
  "\u2581L\u00f4": 6985,
  "\u2581x\u1ec9": 6986,
  "\u53ea\u9700\u8981": 6987,
  "\u2581B\u1ea1o": 6988,
  "\u2581B\u00e0nh": 6989,
  "\u2581\u0111oan": 6990,
  "\u2581\u0111\u1ecdng": 6991,
  "\u2581ngh\u1eb9n": 6992,
  "\u2581Nghi\u00eam": 6993,
  "\u4e00\u8d9f": 6994,
  "\u4e4b\u4f4d": 6995,
  "\u4fbf\u53ef": 6996,
  "\u5bd2\u51b7": 6997,
  "\u5e7d\u6697": 6998,
  "\u4e2d\u5e74\u4eba": 6999,
  "\u5bc6\u5bc6\u9ebb\u9ebb": 7000,
  "\u5c0f\u5fc3\u7ffc\u7ffc": 7001,
  "\u64c2\u53f0": 7002,
  "\u7f6e\u4fe1": 7003,
  "\u505a\u4e0d\u5230": 7004,
  "\u2581nh\u00e0o": 7005,
  "\u4e00\u62b9": 7006,
  "\u51c6\u786e": 7007,
  "\u5486\u54ee": 7008,
  "\u6027\u683c": 7009,
  "\u65e0\u8bed": 7010,
  "\u6709\u4f59": 7011,
  "\u795e\u9053": 7012,
  "\u7f3a\u9677": 7013,
  "\u82e5\u6709": 7014,
  "\u8fd8\u8bf7": 7015,
  "\u5929\u7384\u955c": 7016,
  "\u662f\u4e00\u4f4d": 7017,
  "\u2581O\u1ea3n": 7018,
  "\u2581g\u1eaft": 7019,
  "\u2581qu\u00ea": 7020,
  "\u2581\u9646": 7021,
  "\u521a\u597d": 7022,
  "\u5251\u7684": 7023,
  "\u5750\u9547": 7024,
  "\u5996\u5080": 7025,
  "\u907f\u514d": 7026,
  "\u9ad8\u6df1": 7027,
  "\u2581\u6b64\u523b": 7028,
  "\u4e00\u5411": 7029,
  "\u542c\u4e86": 7030,
  "\u5916\u56f4": 7031,
  "\u6212\u6307": 7032,
  "\u65e0\u654c": 7033,
  "\u6c89\u91cd": 7034,
  "\u7279\u610f": 7035,
  "\u81f3\u4eca": 7036,
  "\u9053\u5b97": 7037,
  "\u9eef\u6de1": 7038,
  "\u2581Cu\u1ed9c": 7039,
  "\u2581Ni\u1ec7m": 7040,
  "\u4ece\u4ed6": 7041,
  "\u63a8\u884d": 7042,
  "\u65e0\u6781": 7043,
  "\u65e0\u89c6": 7044,
  "\u8840\u8165": 7045,
  "\u884c\u4e3a": 7046,
  "\u2581n\u1ee1": 7047,
  "\u2581tr\u01a1": 7048,
  "\u2581nhi\u1ec5m": 7049,
  "\u4eca\u665a": 7050,
  "\u5929\u4e0a": 7051,
  "\u5c71\u8c37": 7052,
  "\u6d41\u4e91": 7053,
  "\u90aa\u795e": 7054,
  "\u2581H\u00f4": 7055,
  "\u2581T\u1ecda": 7056,
  "\u2581th\u1ea3y": 7057,
  "\u2581\u9752": 7058,
  "\u4fbf\u8981": 7059,
  "\u51fa\u53e3": 7060,
  "\u523b\u610f": 7061,
  "\u56de\u5f52": 7062,
  "\u6218\u58eb": 7063,
  "\u770b\u8fc7": 7064,
  "\u79f0\u547c": 7065,
  "\u95e8\u4e0b": 7066,
  "\u9ed1\u9f99": 7067,
  "\u662f\u600e\u4e48": 7068,
  "\u8fd9\u91cc\u7684": 7069,
  "Nghe": 7070,
  "\u2581M\u00e2u": 7071,
  "\u2581Tr\u00e1c": 7072,
  "\u2581v\u1ea7ng": 7073,
  "\u4e4b\u5883": 7074,
  "\u5267\u70c8": 7075,
  "\u573a\u9762": 7076,
  "\u57ce\u5185": 7077,
  "\u5bc6\u8c0d": 7078,
  "\u5e76\u65e0": 7079,
  "\u6f2b\u5929": 7080,
  "\u8840\u6db2": 7081,
  "\u2581b\u1eaby": 7082,
  "\u2581tr\u1ec5": 7083,
  "\u2581tr\u1ed9n": 7084,
  "Ai": 7085,
  "us": 7086,
  "\u53c8\u88ab": 7087,
  "\u4e5f\u6709\u4e9b": 7088,
  "\u5c31\u6ca1\u6709": 7089,
  "\u610f\u8bc6\u5230": 7090,
  "\u7684\u53d8\u5316": 7091,
  "\u2581c\u00f4n": 7092,
  "\u2581nh\u1ea7m": 7093,
  "\u2581chu\u00f4i": 7094,
  "\u4e00\u904d": 7095,
  "\u4e3a\u4e00": 7096,
  "\u5a01\u538b": 7097,
  "\u79ef\u7d2f": 7098,
  "\u80dc\u5229": 7099,
  "\u9057\u61be": 7100,
  "\u4ec5\u4ec5\u662f": 7101,
  "\u56fe\u4e66\u9986": 7102,
  "\u4e24\u5929": 7103,
  "\u5206\u660e": 7104,
  "\u5e73\u65e5": 7105,
  "\u601d\u5357": 7106,
  "\u6cd5\u5e08": 7107,
  "\u773c\u770b": 7108,
  "\u8d44\u6599": 7109,
  "\u98de\u5feb": 7110,
  "\u6de1\u6de1\u7684": 7111,
  "\u2581Ng\u1ea1n": 7112,
  "\u4e16\u4eba": 7113,
  "\u4e1c\u8352": 7114,
  "\u5947\u5f02": 7115,
  "\u610f\u6599": 7116,
  "\u8fb9\u4e0a": 7117,
  "\u90a3\u65f6": 7118,
  "\u9762\u65e0": 7119,
  "\u2581b\u00e8": 7120,
  "\u6765\u5f97\u53ca": 7121,
  "\u6c89\u9ed8\u4e86": 7122,
  "\u2581L\u00f4n": 7123,
  "\u89c9\u5f97\u81ea\u5df1": 7124,
  "\u2581nh\u1ea5p": 7125,
  "\u2581Tranh": 7126,
  "\u2581nhu\u1eadn": 7127,
  "\u51fa\u95e8": 7128,
  "\u6b63\u6d69": 7129,
  "\u6e29\u548c": 7130,
  "\u878d\u5165": 7131,
  "\u7684\u5173\u7cfb": 7132,
  "\u7adf\u7136\u662f": 7133,
  "\u2581b\u1ebfp": 7134,
  "\u2581h\u00e8n": 7135,
  "Thanh": 7136,
  "\u2581b\u1ecfng": 7137,
  "\u2581nh\u1eb1m": 7138,
  "\u1ebfm": 7139,
  "\u548c\u6211": 7140,
  "\u7684\u8def": 7141,
  "\u78b0\u649e": 7142,
  "\u5316\u6210": 7143,
  "\u5316\u7684": 7144,
  "\u534a\u5e74": 7145,
  "\u5deb\u9b42": 7146,
  "\u610f\u89c1": 7147,
  "\u80fd\u8ba9": 7148,
  "\u81ea\u8bed": 7149,
  "\u987a\u4fbf": 7150,
  "\u2581Ch\u00e2m": 7151,
  "\u2581S\u00e1ng": 7152,
  "\u4e00\u8109": 7153,
  "\u4e24\u5927": 7154,
  "\u5143\u4e39": 7155,
  "\u5b9d\u8d1d": 7156,
  "\u751f\u7269": 7157,
  "\u7684\u957f": 7158,
  "\u865a\u5e7b": 7159,
  "\u9636\u6bb5": 7160,
  "\u97f3\u4e50": 7161,
  "\u2581k\u00ea": 7162,
  "\u2581\u0111o\u1ea3n": 7163,
  "\u4eba\u4e86": 7164,
  "\u4f60\u4e5f": 7165,
  "\u5bab\u6bbf": 7166,
  "\u60ca\u6050": 7167,
  "\u7684\u7cbe": 7168,
  "\u9635\u9635": 7169,
  "\u9690\u79d8": 7170,
  "\u5389\u5bb3\u7684": 7171,
  "\u2581C\u1eebu": 7172,
  "\u2581t\u1ee7y": 7173,
  "\u2581th\u00e9p": 7174,
  "\u4e0a\u7a7a": 7175,
  "\u5fc3\u7406": 7176,
  "\u624b\u673a": 7177,
  "\u62cd\u4e86": 7178,
  "\u7684\u9762": 7179,
  "\u4f55\u6b63\u6d69": 7180,
  "\u624d\u77e5\u9053": 7181,
  "\u90a3\u65f6\u5019": 7182,
  "\u2581v\u1eaft": 7183,
  "\u2581x\u00f3t": 7184,
  "\u2581th\u00f3i": 7185,
  "\u4ed9\u672f": 7186,
  "\u4f60\u6211": 7187,
  "\u5e7d\u51a5": 7188,
  "\u5f80\u540e": 7189,
  "\u65cb\u8f6c": 7190,
  "\u65e0\u529b": 7191,
  "\u7d2b\u8272": 7192,
  "\u80d6\u5b50": 7193,
  "\u9b54\u4fee": 7194,
  "ood": 7195,
  "\u2581ch\u1ee3": 7196,
  "\u597d\u4e0d\u5bb9\u6613": 7197,
  "\u2581\u4e91": 7198,
  "\u4e0d\u7740": 7199,
  "\u4e8c\u5a18": 7200,
  "\u5141\u8bb8": 7201,
  "\u5d29\u6e83": 7202,
  "\u82cd\u664f": 7203,
  "\u90a3\u53ea": 7204,
  "\u4e00\u6837\u7684": 7205,
  "\u59dc\u601d\u5357": 7206,
  "\u7684\u8eab\u8eaf": 7207,
  "\u7684\u90a3\u4f4d": 7208,
  "\u786c\u751f\u751f": 7209,
  "\u8fd8\u6709\u4e9b": 7210,
  "\u2581l\u1ec1u": 7211,
  "\u2581t\u1ed3i": 7212,
  "\u2581nh\u00fac": 7213,
  ",\u201d": 7214,
  "\u5206\u6790": 7215,
  "\u5370\u8c61": 7216,
  "\u601d\u7eea": 7217,
  "\u674e\u5e73": 7218,
  "\u800c\u5728": 7219,
  "\u843d\u5165": 7220,
  "\u843d\u7684": 7221,
  "\u9ad8\u9ad8": 7222,
  "\u4f17\u4eba\u7684": 7223,
  "\u6d88\u5931\u5728": 7224,
  "\u2581ng\u00f3": 7225,
  "\u2581\u0111\u1eadu": 7226,
  "\u6beb\u4e0d\u72b9\u8c6b": 7227,
  "\u2581th\u1ed1i": 7228,
  "\u2581\u0110i\u1ec3m": 7229,
  "\u4e00\u5343": 7230,
  "\u5192\u9669": 7231,
  "\u53cd\u5012": 7232,
  "\u660e\u6708": 7233,
  "\u767e\u82b1": 7234,
  "\u81ea\u52a8": 7235,
  "\u8fd8\u7b97": 7236,
  "\u9a91\u58eb": 7237,
  "\u9ec4\u91d1": 7238,
  "\u2581n\u1ea1": 7239,
  "\u53e6\u4e00\u4e2a": 7240,
  "\u2581g\u00e1y": 7241,
  "\u2581th\u1ecf": 7242,
  "\u2581tr\u1ea3m": 7243,
  "\u4eca\u591c": 7244,
  "\u5c01\u9501": 7245,
  "\u5c71\u5e84": 7246,
  "\u60f3\u7684": 7247,
  "\u6625\u5929": 7248,
  "\u6c49\u5b50": 7249,
  "\u76f4\u81f3": 7250,
  "\u89c2\u4e3b": 7251,
  "\u8fd9\u95e8": 7252,
  "\u9662\u5b50": 7253,
  "H\u01a1n": 7254,
  "\u4f20\u5f1f\u5b50": 7255,
  "\u2581h\u1ebbm": 7256,
  "\u4e94\u9636": 7257,
  "\u4eb2\u624b": 7258,
  "\u6211\u53bb": 7259,
  "\u987b\u5f25": 7260,
  "\u5f88\u591a\u4eba": 7261,
  "\u767d\u8272\u7684": 7262,
  "\u987e\u5f69\u8863": 7263,
  "\u2581H\u00fac": 7264,
  "\u2581n\u00f4n": 7265,
  "\u2581Th\u00fac": 7266,
  "\u2581mi\u00ean": 7267,
  "\u5a46\u5a46": 7268,
  "\u5c11\u4e86": 7269,
  "\u6084\u7136": 7270,
  "\u6211\u548c": 7271,
  "\u63a2\u67e5": 7272,
  "\u6587\u5b57": 7273,
  "\u6c14\u6c1b": 7274,
  "\u7480\u74a8": 7275,
  "\u4ec0\u4e48\u4e8b": 7276,
  "\u5f88\u5bb9\u6613": 7277,
  "\u7684\u7f18\u6545": 7278,
  "\u8fd9\u4e2a\u65f6\u5019": 7279,
  "\u4e00\u4efd": 7280,
  "\u6311\u9009": 7281,
  "\u8eb2\u907f": 7282,
  "\u8fc7\u5f80": 7283,
  "\u8fd9\u7fa4": 7284,
  "\u51fa\u4e00\u4e1d": 7285,
  "\u5fc3\u4e2d\u4e00": 7286,
  "\u2581c\u1eb7p": 7287,
  "\u2581Th\u1ee5c": 7288,
  "\u4e0d\u66fe": 7289,
  "\u4e0d\u7518": 7290,
  "\u51ed\u7a7a": 7291,
  "\u5269\u4e0b": 7292,
  "\u723b\u56fd": 7293,
  "\u85cf\u5728": 7294,
  "\u8d8a\u662f": 7295,
  "Con": 7296,
  "\u2581\u7136\u540e": 7297,
  "\u2581\u770b\u5230": 7298,
  "\u8fd9\u4e48\u5927": 7299,
  "\u2581X\u00e1c": 7300,
  "\u2581t\u00e1t": 7301,
  "\u2581\u5510": 7302,
  "\u4e00\u5206": 7303,
  "\u4e00\u95e8": 7304,
  "\u5c71\u5cf0": 7305,
  "\u5fc3\u5883": 7306,
  "\u611f\u8c22": 7307,
  "\u6536\u5165": 7308,
  "\u653f\u5e9c": 7309,
  "\u9f99\u795e": 7310,
  "\u2581b\u00f3": 7311,
  "\u4e0d\u51fa\u6765": 7312,
  "\u4e4b\u4e0a\u7684": 7313,
  "\u2581g\u1ee5c": 7314,
  "\u2581\u0110\u1ea9u": 7315,
  "\u4ece\u6765\u6ca1\u6709": 7316,
  "\u00ecu": 7317,
  "\u7b97\u4e86": 7318,
  "\u91d1\u732a": 7319,
  "\u4fee\u4ed9\u8005": 7320,
  "\u0110\u01b0\u01a1ng": 7321,
  "\u2581D\u00f9ng": 7322,
  "\u2581ranh": 7323,
  "Tu": 7324,
  "\u0110\u00f3": 7325,
  "\u4e00\u62db": 7326,
  "\u4e16\u7684": 7327,
  "\u4e39\u5e08": 7328,
  "\u53cd\u566c": 7329,
  "\u65b9\u5706": 7330,
  "\u662f\u4ece": 7331,
  "\u672a\u66fe": 7332,
  "\u72b6\u51b5": 7333,
  "\u76b1\u4e86": 7334,
  "\u7ec6\u7ec6": 7335,
  "\u8840\u8272": 7336,
  "\u968f\u4e4b": 7337,
  "\u2581n\u1ecd": 7338,
  "\u6211\u5df2\u7ecf": 7339,
  "\u2581T\u1ee7y": 7340,
  "\u2581t\u1eafp": 7341,
  "\u2581g\u1ea1ch": 7342,
  "\u5200\u950b": 7343,
  "\u5bf9\u89c6": 7344,
  "\u9053\u884c": 7345,
  "\u5929\u5730\u4e4b": 7346,
  "\u7b80\u5355\u7684": 7347,
  "\u2581n\u1ed9p": 7348,
  "\u2581ph\u00f4": 7349,
  "al": 7350,
  "\u4f1a\u5728": 7351,
  "\u5305\u56f4": 7352,
  "\u56db\u5927": 7353,
  "\u5c71\u5c71": 7354,
  "\u5e1d\u6d41": 7355,
  "\u6ca7\u6d77": 7356,
  "\u7834\u706d": 7357,
  "\u800c\u4e0d": 7358,
  "\u2581h\u00f2": 7359,
  "\u2581b\u1ed9t": 7360,
  "\u2581tr\u1ee9ng": 7361,
  "\u4e34\u65f6": 7362,
  "\u5973\u4fee": 7363,
  "\u5b66\u4f1a": 7364,
  "\u6495\u88c2": 7365,
  "\u6574\u5ea7": 7366,
  "\u771f\u7075": 7367,
  "\u7ba1\u5bb6": 7368,
  "\u98ce\u96e8": 7369,
  "\u4e86\u4e00\u4f1a": 7370,
  "\u6709\u4e00\u79cd": 7371,
  "\u6839\u672c\u4e0d": 7372,
  "\u7684\u795e\u8bc6": 7373,
  "\u2581Qu\u00e1": 7374,
  "\u2581R\u1ed1t": 7375,
  "\u2581t\u1eafm": 7376,
  "\u4e0b\u624b": 7377,
  "\u4e0d\u51e1": 7378,
  "\u57ce\u91cc": 7379,
  "\u77ed\u6682": 7380,
  "\u5e1d\u6d41\u6d46": 7381,
  "\u7684\u4eba\u4eec": 7382,
  "\u7ea2\u8272\u7684": 7383,
  "\u2581Tin": 7384,
  "\u2581b\u00f3c": 7385,
  "\u516d\u9053\u8f6e\u56de": 7386,
  "\u2581ng\u00fat": 7387,
  "\u2581ng\u1ecdt": 7388,
  "\u2581tang": 7389,
  "\u4f8d\u536b": 7390,
  "\u672f\u6cd5": 7391,
  "\u7237\u7237": 7392,
  "\u7a7f\u68ad": 7393,
  "\u4e86\u4ed6\u7684": 7394,
  "\u7684\u5a01\u529b": 7395,
  "\u96be\u4e0d\u6210": 7396,
  "\u2581S\u1ea5u": 7397,
  "\u2581ong": 7398,
  "\u2581\u0111\u1ed1m": 7399,
  "\u2581Ngh\u00ea": 7400,
  "\u2581khan": 7401,
  "\u2581gi\u1eb1ng": 7402,
  "\u4e4c\u4e91": 7403,
  "\u4eca\u5e74": 7404,
  "\u4ee5\u4e0a": 7405,
  "\u4efb\u7531": 7406,
  "\u5148\u662f": 7407,
  "\u51b2\u7a81": 7408,
  "\u5341\u591a": 7409,
  "\u5c9b\u5c7f": 7410,
  "\u9ad8\u4eba": 7411,
  "\u2581\u0111e": 7412,
  "\u2581S\u00e2m": 7413,
  "~~": 7414,
  "\u4eab\u53d7": 7415,
  "\u4eea\u5f0f": 7416,
  "\u5c31\u597d": 7417,
  "\u6797\u94ed": 7418,
  "\u738b\u626c": 7419,
  "\u76f8\u4f3c": 7420,
  "\u8bbe\u8ba1": 7421,
  "\u8d85\u8131": 7422,
  "\u4e5f\u4e0d\u8fc7": 7423,
  "\u51fa\u73b0\u7684": 7424,
  "\u662f\u771f\u7684": 7425,
  "\u751a\u81f3\u8fde": 7426,
  "\u2581B\u00e1c": 7427,
  "\u2581b\u1ea9n": 7428,
  "\u2581r\u00e0o": 7429,
  "\u4e0d\u5c0f": 7430,
  "\u5149\u8f89": 7431,
  "\u65e0\u5173": 7432,
  "\u6b63\u786e": 7433,
  "\u5f00\u59cb\u4e86": 7434,
  "\u90fd\u6709\u4e9b": 7435,
  "\u2581Ng\u1eef": 7436,
  "\u77e5\u9053\u81ea\u5df1": 7437,
  "\u2581to\u1ea1c": 7438,
  "\u4e24\u5e74": 7439,
  "\u5546\u884c": 7440,
  "\u5f00\u7684": 7441,
  "\u2581\u5176\u5b9e": 7442,
  "\u624b\u91cc\u7684": 7443,
  "\u7684\u5730\u6b65": 7444,
  "\u2581b\u1ebfn": 7445,
  "\u538b\u6291": 7446,
  "\u795e\u5149": 7447,
  "\u552f\u4e00\u7684": 7448,
  "\u2581b\u1eafp": 7449,
  "\u4ef0\u5584\u7fa4\u5c9b": 7450,
  "\u2581hoan": 7451,
  "\u2581th\u01b0a": 7452,
  "\u4fee\u7f57": 7453,
  "\u505a\u4e3a": 7454,
  "\u513f\u7684": 7455,
  "\u516c\u5e73": 7456,
  "\u51e0\u53e5": 7457,
  "\u53c8\u80fd": 7458,
  "\u56de\u8361": 7459,
  "\u79e6\u7fbd": 7460,
  "\u80cc\u4e0a": 7461,
  "\u9b54\u6cd5\u5e08": 7462,
  "\u2581n\u1ea5u": 7463,
  "\u2581v\u00e1y": 7464,
  "\u2581Ng\u1ea1o": 7465,
  "\u2581hi\u1ec1n": 7466,
  "\u5c3d\u5934": 7467,
  "\u63a2\u7d22": 7468,
  "\u63d0\u8d77": 7469,
  "\u662f\u60f3": 7470,
  "\u6728\u5170": 7471,
  "\u800c\u4e0b": 7472,
  "\u8eab\u7a7f": 7473,
  "\u6709\u51e0\u5206": 7474,
  "\u2581T\u1eafc": 7475,
  "\u2581m\u00e9p": 7476,
  "\u2581Ho\u00e1n": 7477,
  "\u2581t\u1ea1ng": 7478,
  "\u4e2b\u5934": 7479,
  "\u5373\u53ef": 7480,
  "\u4fee\u70bc\u8005": 7481,
  "\u6211\u73b0\u5728": 7482,
  "Ti\u00ean": 7483,
  "\u2581v\u1eafng": 7484,
  "\u6df1\u5438\u4e00\u53e3\u6c14": 7485,
  "\u2581tho\u00e1i": 7486,
  "\u4e0a\u767e": 7487,
  "\u65e0\u53ef": 7488,
  "\u670d\u6c14": 7489,
  "\u672c\u4e66": 7490,
  "\u9762\u9732": 7491,
  "\u5239\u90a3\u95f4": 7492,
  "\u2581Th\u00ed": 7493,
  "\u6446\u4e86\u6446\u624b": 7494,
  "\u2581\u0111i\u1ebfm": 7495,
  "\u2581\u8001": 7496,
  "\u4e09\u5206": 7497,
  "\u524d\u540e": 7498,
  "\u53f8\u7a7a": 7499,
  "\u5e26\u9886": 7500,
  "\u6cd5\u76f8": 7501,
  "\u6d41\u4f20": 7502,
  "\u8089\u4f53": 7503,
  "\u88c2\u7f1d": 7504,
  "\u8f6c\u79fb": 7505,
  "\u9876\u7ea7": 7506,
  "\u628a\u81ea\u5df1": 7507,
  "\u7684\u4e39\u836f": 7508,
  "\u2581Ch\u00fa": 7509,
  "\u2581Ho\u1eafc": 7510,
  "\u2581nhan": 7511,
  "\u2581v\u01b0\u1eddn": 7512,
  "\u4e00\u62f3": 7513,
  "\u4f9b\u5949": 7514,
  "\u5149\u534e": 7515,
  "\u6559\u6388": 7516,
  "\u6ee1\u8db3": 7517,
  "\u795e\u6765": 7518,
  "\u90e8\u7684": 7519,
  "\u53c8\u5982\u4f55": 7520,
  "\u2581Gi\u00f3": 7521,
  "\u2581M\u1ea1t": 7522,
  "\u2581th\u1ebb": 7523,
  "\u2581C\u00e0ng": 7524,
  "\u2581Ngh\u0129a": 7525,
  "\u4e86\u6570": 7526,
  "\u6c14\u8840": 7527,
  "\u7406\u8bba": 7528,
  "\u9053\u6cd5": 7529,
  "\u4f60\u600e\u4e48": 7530,
  "\u5f88\u660e\u663e": 7531,
  "\u2581ch\u00f3c": 7532,
  "\u2581\u0110\u01b0\u1ee3c": 7533,
  "\u4e07\u5343": 7534,
  "\u57ce\u4e2d": 7535,
  "\u5fcc\u60ee": 7536,
  "\u6740\u610f": 7537,
  "\u8d77\u7801": 7538,
  "\u9646\u7eed": 7539,
  "\u9ad8\u5899": 7540,
  "\u7684\u5f71\u5b50": 7541,
  "\u2581V\u00f5ng": 7542,
  "ck": 7543,
  "\u4e0b\u5df4": 7544,
  "\u4e0d\u89c9": 7545,
  "\u58f0\u54cd": 7546,
  "\u6c89\u601d": 7547,
  "\u76ae\u80a4": 7548,
  "\u9053\u7956": 7549,
  "\u2581h\u00ed": 7550,
  "Vi\u1ec7c": 7551,
  "\u2581nh\u01b0\u1ee3c": 7552,
  "!!": 7553,
  "\u4e3a\u4e4b": 7554,
  "\u4f20\u9012": 7555,
  "\u4f60\u4e0d": 7556,
  "\u5723\u6559": 7557,
  "\u591a\u8bf4": 7558,
  "\u5b88\u4e18": 7559,
  "\u5bd2\u98df": 7560,
  "\u5df4\u638c": 7561,
  "\u660f\u8ff7": 7562,
  "\u6643\u52a8": 7563,
  "\u672c\u8d28": 7564,
  "\u76f8\u52a9": 7565,
  "\u7fa1\u6155": 7566,
  "\u968f\u53e3": 7567,
  "\u9762\u65e0\u8868\u60c5": 7568,
  "\u4e5f\u5f97": 7569,
  "\u524d\u53bb": 7570,
  "\u538b\u6839": 7571,
  "\u5723\u540e": 7572,
  "\u601d\u8bae": 7573,
  "\u8ba1\u7b97": 7574,
  "\u8fdb\u5ea6": 7575,
  "\u6731\u4e8c\u5a18": 7576,
  "\u2581Tr\u1ecb": 7577,
  "\u2581l\u1ebbn": 7578,
  "\u2581ven": 7579,
  "\u2581c\u1ee7ng": 7580,
  "\u2581kh\u1ea5u": 7581,
  "\u2581\u695a": 7582,
  "\u4e00\u811a": 7583,
  "\u4e0e\u4e4b": 7584,
  "\u5403\u60ca": 7585,
  "\u582a\u6bd4": 7586,
  "\u5899\u58c1": 7587,
  "\u5c31\u6b64": 7588,
  "\u5e94\u5f53": 7589,
  "\u63a5\u8fde": 7590,
  "\u6708\u7684": 7591,
  "\u684c\u4e0a": 7592,
  "\u79f0\u4e3a": 7593,
  "\u8212\u670d": 7594,
  "\u84dd\u8272": 7595,
  "\u9192\u6765": 7596,
  "\u62cd\u4e86\u62cd": 7597,
  "\u7684\u60f3\u6cd5": 7598,
  "\u2581\u0111i\u1ec1m": 7599,
  "\u2581\u01b0\u01a1ng": 7600,
  "\u2581T\u01b0\u1eddng": 7601,
  "\u4e3b\u610f": 7602,
  "\u62d3\u8dcb": 7603,
  "\u6c5f\u6e56": 7604,
  "\u751f\u6c14": 7605,
  "\u2581ch\u1edb": 7606,
  "\u2581H\u01b0\u1edbng": 7607,
  "\u51cc\u5929": 7608,
  "\u6295\u5165": 7609,
  "\u76f8\u4e92": 7610,
  "\u8d35\u65cf": 7611,
  "\u9635\u7684": 7612,
  "\u98de\u5347": 7613,
  "\u2581r\u1ebd": 7614,
  "\u2581x\u1ea1": 7615,
  "\u4e24\u4e2a\u4eba": 7616,
  "\u2581d\u00e0o": 7617,
  "\u2581l\u1eaby": 7618,
  "\u4e0d\u53ef\u601d\u8bae": 7619,
  "\u2581mu\u1ed1i": 7620,
  "\u2581quy\u1ebfn": 7621,
  "\u5ba2\u4eba": 7622,
  "\u6240\u8a00": 7623,
  "\u662f\u6700": 7624,
  "\u6d3e\u7684": 7625,
  "\u767e\u5217": 7626,
  "\u9635\u7eb9": 7627,
  "\u9648\u5bb6": 7628,
  "\u96be\u514d": 7629,
  "\u00f5ng": 7630,
  "\u2581\u4e00\u4e2a": 7631,
  "\u4e0a\u5b98\u98da": 7632,
  "\u5f88\u53ef\u80fd": 7633,
  "\u7684\u9053\u8def": 7634,
  "Ti\u1ec1n": 7635,
  "\u2581ph\u1ed5": 7636,
  "\u5047\u7684": 7637,
  "\u5f53\u4e0b": 7638,
  "\u5f53\u505a": 7639,
  "\u63cf\u8ff0": 7640,
  "\u6b63\u8981": 7641,
  "\u6bd4\u4ed6": 7642,
  "\u7684\u524d": 7643,
  "\u884c\u4eba": 7644,
  "\u8bdd\u9898": 7645,
  "\u8be7\u5f02": 7646,
  "\u9a7e\u9a6d": 7647,
  "\u4e5f\u5df2\u7ecf": 7648,
  "\u534e\u590f\u519b": 7649,
  "\u9648\u76ae\u76ae": 7650,
  "\u2581B\u1ea1c": 7651,
  "\u2581G\u1ea7n": 7652,
  "\u2581Tru": 7653,
  "\u2581Di\u1ec7c": 7654,
  "\u2581Ni\u1ebft": 7655,
  "\u2581l\u00e1ch": 7656,
  "\u4e39\u9053": 7657,
  "\u519b\u5b98": 7658,
  "\u653e\u677e": 7659,
  "\u6e56\u7554": 7660,
  "\u7406\u6240": 7661,
  "\u7ffb\u6eda": 7662,
  "\u9635\u773c": 7663,
  "\u9752\u5c71": 7664,
  "\u7684\u4e00\u4e2a": 7665,
  "\u82df\u5bd2\u98df": 7666,
  "\u2581B\u1ea3y": 7667,
  "...\u201d\u201c": 7668,
  "\u2581hi\u00ean": 7669,
  "......\u201c": 7670,
  "\u5355\u72ec": 7671,
  "\u5b59\u5f3a": 7672,
  "\u6709\u4e24": 7673,
  "\u79e6\u541b": 7674,
  "\u806a\u660e": 7675,
  "\u964c\u751f": 7676,
  "\u6062\u590d\u4e86": 7677,
  "\u6709\u4e00\u4e9b": 7678,
  "\u2581m\u1eadp": 7679,
  "\u2581r\u1ea3i": 7680,
  "\u2581nhai": 7681,
  "\u5b66\u5f92": 7682,
  "\u5b89\u6170": 7683,
  "\u5bff\u5143": 7684,
  "\u662f\u5929": 7685,
  "\u7269\u8d44": 7686,
  "\u8e2a\u8ff9": 7687,
  "\u7740\u773c\u775b": 7688,
  "\u2581ch\u00ea": 7689,
  "\u2581n\u1ec7n": 7690,
  "\u4ed6\u60f3": 7691,
  "\u542c\u8fc7": 7692,
  "\u81ea\u5df2": 7693,
  "\u2581x\u00f4n": 7694,
  "\u8fd9\u79cd\u4e8b\u60c5": 7695,
  "\u2581k\u00ecnh": 7696,
  "\u2581m\u00e3ng": 7697,
  "\u2581thu\u1edf": 7698,
  "\u4eba\u6570": 7699,
  "\u671d\u8bd5": 7700,
  "\u8bdd\u8bed": 7701,
  "\u91cd\u89c6": 7702,
  "\u95e8\u524d": 7703,
  "\u2581Tho": 7704,
  "\u2581m\u00e8o": 7705,
  "\u2581ch\u00f9a": 7706,
  "\u4e00\u9636": 7707,
  "\u4e07\u9053": 7708,
  "\u4e30\u5bcc": 7709,
  "\u4e5d\u5929": 7710,
  "\u5317\u6d77": 7711,
  "\u5730\u6b65": 7712,
  "\u5c31\u5f97": 7713,
  "\u5c81\u7684": 7714,
  "\u6253\u7684": 7715,
  "\u91d1\u5c5e": 7716,
  "\u2581\u5f53\u5e74": 7717,
  "\u53e4\u5251\u6c60": 7718,
  "\u661f\u540d\u5e08": 7719,
  "\u2581g\u1ea1o": 7720,
  "\u2581nh\u1ed5": 7721,
  "\u505c\u4e86\u4e0b\u6765": 7722,
  "\u7edd\u5927\u591a\u6570": 7723,
  "\u2581Tung": 7724,
  "\u4e3b\u6301": 7725,
  "\u4e66\u751f": 7726,
  "\u4e86\u597d": 7727,
  "\u4e89\u593a": 7728,
  "\u4ea4\u624b": 7729,
  "\u4ed6\u6709": 7730,
  "\u4f5c\u54cd": 7731,
  "\u547d\u7684": 7732,
  "\u5730\u5e95": 7733,
  "\u5a01\u4e25": 7734,
  "\u6536\u655b": 7735,
  "\u662f\u5927": 7736,
  "\u7535\u89c6": 7737,
  "\u7684\u77f3": 7738,
  "\u7a33\u56fa": 7739,
  "\u7eb5\u6a2a": 7740,
  "\u8bc1\u636e": 7741,
  "\u865a\u7a7a\u4e2d": 7742,
  "\u2581Nhu": 7743,
  "\u2581t\u00f3m": 7744,
  "\u2581nhi\u1ebfp": 7745,
  "\u5370\u8bb0": 7746,
  "\u5b9e\u7684": 7747,
  "\u5c0f\u6ee1": 7748,
  "\u6563\u53bb": 7749,
  "\u7b2c\u4e94": 7750,
  "\u2581L\u1ed7": 7751,
  "\u8fd9\u4e48\u4e00": 7752,
  "\u2581C\u1ea9m": 7753,
  "\u2581D\u1ee5c": 7754,
  "\u2581S\u1ea7m": 7755,
  "\u2581\u0111\u1ed1n": 7756,
  "?!": 7757,
  "\u4e0d\u613f": 7758,
  "\u5916\u51fa": 7759,
  "\u5927\u5385": 7760,
  "\u5c0f\u5c0f": 7761,
  "\u6c79\u6d8c": 7762,
  "\u9762\u76f8": 7763,
  "ell": 7764,
  "\u4e0d\u613f\u610f": 7765,
  "\u7684\u8138\u4e0a": 7766,
  "\u4e0d\u77e5\u4f55\u65f6": 7767,
  "\u00f9n": 7768,
  "\u4e00\u751f": 7769,
  "\u4f69\u670d": 7770,
  "\u534a\u7a7a": 7771,
  "\u53ef\u601c": 7772,
  "\u5c31\u628a": 7773,
  "\u5e73\u5b89": 7774,
  "\u60ca\u559c": 7775,
  "\u6447\u6643": 7776,
  "\u6625\u98ce": 7777,
  "\u7684\u773c": 7778,
  "\u77db\u76fe": 7779,
  "\u795e\u5723": 7780,
  "\u88ad\u51fb": 7781,
  "\u9690\u533f": 7782,
  "\u98ce\u96ea": 7783,
  "\u5bf9\u9762\u7684": 7784,
  "\u2581X\u00e1n": 7785,
  "\u2581h\u00e3m": 7786,
  "\u2581h\u1ee5t": 7787,
  "\u2581kh\u1ec9": 7788,
  "\u2581t\u1ea3i": 7789,
  "\u4e00\u65e5": 7790,
  "\u5634\u5df4": 7791,
  "\u5929\u533b": 7792,
  "\u5c42\u7684": 7793,
  "\u6740\u7684": 7794,
  "\u7075\u836f": 7795,
  "\u2581am": 7796,
  "\u2581X\u00e9t": 7797,
  "\u2581gh\u00e9": 7798,
  "\u5143\u5a74\u4fee\u58eb": 7799,
  "\u8fd9\u6bb5\u65f6\u95f4": 7800,
  "Huy\u1ec1n": 7801,
  "\u2581Mi\u1ec3u": 7802,
  "\u4e07\u7269": 7803,
  "\u5403\u996d": 7804,
  "\u5fc3\u810f": 7805,
  "\u6000\u91cc": 7806,
  "\u6b64\u7269": 7807,
  "\u771f\u610f": 7808,
  "\u7b2c\u4e03": 7809,
  "\u7ba1\u7406": 7810,
  "\u9003\u8dd1": 7811,
  "\u4f46\u73b0\u5728": 7812,
  "\u6bcf\u4e00\u6b21": 7813,
  "\u2581Nh\u1eadn": 7814,
  "\u4e0e\u5176": 7815,
  "\u4f18\u79c0": 7816,
  "\u505a\u4e8b": 7817,
  "\u51cc\u5389": 7818,
  "\u63d0\u9ad8": 7819,
  "\u6b63\u9b54": 7820,
  "\u730e\u5996": 7821,
  "\u96be\u770b": 7822,
  "\u2581Ph\u00e0n": 7823,
  "\u2581h\u1ed5ng": 7824,
  "\u2581khom": 7825,
  "\u2581nh\u1ea5n": 7826,
  "\u4e00\u5bb6": 7827,
  "\u4e3b\u6559": 7828,
  "\u4e91\u5b97": 7829,
  "\u59b9\u59b9": 7830,
  "\u79fb\u52a8": 7831,
  "\u91cd\u70b9": 7832,
  "\u2581Ni": 7833,
  "\u8eab\u8fb9\u7684": 7834,
  "\u2581M\u1eaft": 7835,
  "\u2581r\u00e1c": 7836,
  "\u2581B\u1ea3ng": 7837,
  "\u2581Kh\u00e2m": 7838,
  "\u2581ru\u1ed9ng": 7839,
  ",\u3010": 7840,
  "\u1ed5m": 7841,
  "\u4ece\u5bb9": 7842,
  "\u53bb\u5e74": 7843,
  "\u6012\u706b": 7844,
  "\u60e8\u53eb": 7845,
  "\u6709\u5927": 7846,
  "\u6c14\u6d77": 7847,
  "\u8ba4\u77e5": 7848,
  "\u9519\u8bef": 7849,
  "\u81ea\u5df1\u5728": 7850,
  "\u2581nh\u00e9": 7851,
  "\u2581n\u1ebfm": 7852,
  "\u63a5\u4e0b\u6765\u7684": 7853,
  "\u7b51\u57fa\u540e\u671f": 7854,
  "\u2581\u4e09": 7855,
  "\u4e00\u4f17": 7856,
  "\u51fa\u53d1": 7857,
  "\u5979\u662f": 7858,
  "\u5b8c\u989c": 7859,
  "\u5c3d\u91cf": 7860,
  "\u5f80\u5916": 7861,
  "\u5f97\u591a": 7862,
  "\u6240\u89c1": 7863,
  "\u8170\u95f4": 7864,
  "\u90a3\u80a1": 7865,
  "\u2581B\u00e0": 7866,
  "\u2581\u674e\u7384": 7867,
  "\u4e8c\u5e08\u5144": 7868,
  "\u4e0d\u8fdc": 7869,
  "\u5f31\u7684": 7870,
  "\u6781\u9ad8": 7871,
  "\u6c89\u7761": 7872,
  "\u89c1\u9762": 7873,
  "\u8def\u7684": 7874,
  "\u95e8\u4e2d": 7875,
  "H\u00f3a": 7876,
  "\u2581Am": 7877,
  "Linh": 7878,
  "\u4e3a\u4ec0\u4e48\u8981": 7879,
  "\u2581khao": 7880,
  "\u2581Duy\u00ean": 7881,
  "\u4e00\u4f19": 7882,
  "\u4e00\u7f15": 7883,
  "\u4e8b\u4ef6": 7884,
  "\u5996\u5e1d": 7885,
  "\u5bf9\u5e94": 7886,
  "\u5f00\u5fc3": 7887,
  "\u62ff\u4e0b": 7888,
  "\u901a\u77e5": 7889,
  "\u2581ao": 7890,
  "\u8fd9\u4e2a\u95ee\u9898": 7891,
  "\u2581ki\u1ec7m": 7892,
  "\u2581v\u0169ng": 7893,
  "\u4e3a\u4eba": 7894,
  "\u4f55\u5fc5": 7895,
  "\u5413\u5f97": 7896,
  "\u5929\u5ead": 7897,
  "\u611f\u6fc0": 7898,
  "\u7236\u6bcd": 7899,
  "\u767d\u9ca4": 7900,
  "\u2581\u5f20\u7fbd": 7901,
  "\u771f\u7684\u662f": 7902,
  "\u2581b\u1ea1t": 7903,
  "\u2581T\u00ednh": 7904,
  "\u2581ng\u1eadm": 7905,
  "os": 7906,
  "\u53ef\u8c13": 7907,
  "\u5c55\u73b0": 7908,
  "\u5e8f\u5217": 7909,
  "\u6e05\u6668": 7910,
  "\u7cbe\u8840": 7911,
  "\u8fdb\u9636": 7912,
  "\u2581Hy": 7913,
  "\u2581\u00c1o": 7914,
  "\u4e0d\u65ad\u7684": 7915,
  "\u2581B\u00e1o": 7916,
  "\u2581u\u1ed5ng": 7917,
  "\u2581gi\u01b0\u01a1ng": 7918,
  "\u2581\u5218": 7919,
  "\u4e00\u67c4": 7920,
  "\u5600\u5495": 7921,
  "\u602a\u5f02": 7922,
  "\u6740\u6389": 7923,
  "\u7a7f\u8d8a": 7924,
  "\u542c\u5230\u4e86": 7925,
  "\u6700\u5173\u952e": 7926,
  "id": 7927,
  "\u54e5\u54e5": 7928,
  "\u5e08\u59b9": 7929,
  "\u6c9f\u901a": 7930,
  "\u7684\u4e09": 7931,
  "\u795e\u754c": 7932,
  "\u7b26\u5408": 7933,
  "\u4e86\u4e00\u53e3": 7934,
  "\u7684\u540d\u5b57": 7935,
  "\u2581Mang": 7936,
  "\u2581c\u1ea3ng": 7937,
  "\u2581tr\u1ee5c": 7938,
  "\u4e39\u971e": 7939,
  "\u5468\u906d": 7940,
  "\u591c\u91cc": 7941,
  "\u6280\u80fd": 7942,
  "\u8c03\u52a8": 7943,
  "\u8f70\u9e23": 7944,
  "\u4e86\u4e00\u5708": 7945,
  "\u770b\u4e86\u773c": 7946,
  "\u2581Y\u1ec3m": 7947,
  "\u2581r\u00eca": 7948,
  "\u2581\u0111\u1ed1c": 7949,
  "\u4ec5\u4ec5\u53ea\u662f": 7950,
  "\u2581r\u1ea1ng": 7951,
  "\u4f38\u51fa": 7952,
  "\u505a\u68a6": 7953,
  "\u6c14\u8fd0": 7954,
  "\u6cb8\u817e": 7955,
  "\u6df1\u523b": 7956,
  "\u2581eo": 7957,
  "\u4e0d\u7ba1\u662f": 7958,
  "\u4f53\u7684": 7959,
  "\u5b9a\u7136": 7960,
  "\u70b8\u5f00": 7961,
  "\u7834\u89e3": 7962,
  "\u800c\u81f3": 7963,
  "\u2581S\u1ee9": 7964,
  "\u2581l\u01b0": 7965,
  "\u7684\u8eab\u4e0a": 7966,
  "\u2581nh\u1ee7": 7967,
  "\u2581ng\u00f9ng": 7968,
  "\u4e3e\u52a8": 7969,
  "\u4fbf\u88ab": 7970,
  "\u505c\u7559": 7971,
  "\u5355\u7eaf": 7972,
  "\u5c71\u541b": 7973,
  "\u5f97\u4f4f": 7974,
  "\u65f6\u673a": 7975,
  "\u767d\u5c71": 7976,
  "\u9877\u523b": 7977,
  "\u7684\u6cd5\u5b9d": 7978,
  "\u7684\u8138\u8272": 7979,
  "\u8fd9\u4e2a\u4eba": 7980,
  "\u5b8c\u5168\u53ef\u4ee5": 7981,
  "\u2581Bi\u1ebfn": 7982,
  "\u4e0d\u4fe1": 7983,
  "\u5341\u4e5d": 7984,
  "\u5c42\u5c42": 7985,
  "\u6563\u4eba": 7986,
  "\u6570\u5343": 7987,
  "\u65e0\u4e00": 7988,
  "\u8001\u592a": 7989,
  "\u8361\u8361": 7990,
  "\u8d8a\u591a": 7991,
  "\u2581r\u1ebb": 7992,
  "\u53c8\u4e0d\u662f": 7993,
  "\u56de\u6765\u7684": 7994,
  "\u56de\u7b54\u9053": 7995,
  "\u7684\u7b11\u5bb9": 7996,
  "C\u00f4ng": 7997,
  "\u2581T\u00fac": 7998,
  "\u2581du\u1ec7": 7999,
  "\u2581b\u00fang": 8000,
  "\u2581Nhi\u1ec1u": 8001,
  "\u4e0e\u6211": 8002,
  "\u5b9e\u5219": 8003,
  "\u63a9\u9970": 8004,
  "\u68ee\u6797": 8005,
  "\u6d41\u901d": 8006,
  "\u73a9\u7b11": 8007,
  "\u7acb\u5728": 8008,
  "\u2581B\u1ed1": 8009,
  "\u2581\u8fd9\u4f4d": 8010,
  "\u5f88\u7b80\u5355": 8011,
  "\u65e0\u58f0\u606f": 8012,
  "\u2581v\u00e9n": 8013,
  "T\u1eeb": 8014,
  "\u4e03\u5f69": 8015,
  "\u4e0d\u80af": 8016,
  "\u4f5c\u6218": 8017,
  "\u5165\u4fb5": 8018,
  "\u5b9e\u8bdd": 8019,
  "\u5f20\u5bb6": 8020,
  "\u6253\u6270": 8021,
  "\u6c38\u6052": 8022,
  "\u7389\u8861": 8023,
  "\u8fdc\u8d85": 8024,
  "\u9694\u7edd": 8025,
  "\u9884\u6599": 8026,
  "\u98a0\u5012": 8027,
  "\u9e92\u9e9f": 8028,
  "\u2581t\u00e1": 8029,
  "\u2581v\u1edf": 8030,
  "\u4e1d\u6beb\u4e0d": 8031,
  "\u6d88\u5931\u4e86": 8032,
  "\u7709\u5934\u4e00": 8033,
  "\u7ad9\u4e86\u8d77\u6765": 8034,
  "\u4ed9\u5bb6": 8035,
  "\u4f53\u8d28": 8036,
  "\u59d0\u59d0": 8037,
  "\u6218\u5e08": 8038,
  "\u6559\u8bad": 8039,
  "\u656c\u754f": 8040,
  "\u6e9f\u6e0a": 8041,
  "\u6fc0\u70c8": 8042,
  "\u7b49\u4ed6": 8043,
  "\u7eb5\u4f7f": 8044,
  "\u89c1\u72b6": 8045,
  "\u2581M\u00ea": 8046,
  "\u4e00\u90e8\u5206": 8047,
  "\u4ed6\u8fd8\u662f": 8048,
  "\u6216\u8005\u662f": 8049,
  "Th\u00e1i": 8050,
  "\u2581Th\u1ee9c": 8051,
  "\u2581r\u1ee5ng": 8052,
  "\u2581chu\u1ed9t": 8053,
  "\u0110\u1ec3": 8054,
  "\u4fbf\u5728": 8055,
  "\u5927\u6210": 8056,
  "\u5f20\u590f": 8057,
  "\u5fc3\u5ff5": 8058,
  "\u6740\u624b": 8059,
  "\u6e21\u8fc7": 8060,
  "\u795e\u5947": 8061,
  "\u90a3\u6761": 8062,
  "\u6709\u4e0d\u5c11": 8063,
  "\u8fd9\u4e48\u5feb": 8064,
  "\u2581x\u1ed5m": 8065,
[...]
